/**
  ******************************************************************************
  * @file    network_data_params.c
  * @author  AST Embedded Analytics Research Platform
  * @date    2025-09-15T05:01:09+0800
  * @brief   AI Tool Automatic Code Generator for Embedded NN computing
  ******************************************************************************
  * Copyright (c) 2025 STMicroelectronics.
  * All rights reserved.
  *
  * This software is licensed under terms that can be found in the LICENSE file
  * in the root directory of this software component.
  * If no LICENSE file comes with this software, it is provided AS-IS.
  ******************************************************************************
  */

#include "network_data_params.h"


/**  Activations Section  ****************************************************/
ai_handle g_network_activations_table[1 + 2] = {
  AI_HANDLE_PTR(AI_MAGIC_MARKER),
  AI_HANDLE_PTR(NULL),
  AI_HANDLE_PTR(AI_MAGIC_MARKER),
};




/**  Weights Section  ********************************************************/
AI_ALIGNED(32)
const ai_u64 s_network_weights_array_u64[15305] = {
  0xe11b7f7f1119e308U, 0x4de634043eec269cU, 0xbc90dc9cc1f5814eU, 0x54f98141007c7b7fU,
  0x154e0428426732d2U, 0xd859ed81aea94801U, 0x3d81cf1b30815bf6U, 0xbcd93dd33d300800U,
  0x5f7c7fe0bb029d8bU, 0x81ae6edaa8573ff2U, 0x813510aa180ea1e1U, 0x264d27810033f105U,
  0x30f2d6943431de7U, 0x6ce12762de8e8113U, 0x324cd8cc47b8104U, 0x2f0a7517f60d7f20U,
  0x811bba815111c642U, 0x332a1830f2def3d6U, 0x81d91c5d3f4c24ebU, 0x19eef733a281e684U,
  0x46e48104ebe96467U, 0xf5475143333c64caU, 0x5aa30b62e98190cfU, 0x3be310be91fd81d3U,
  0x1422cf7fc4bf1297U, 0xc8435d5681ba25b0U, 0x33307cbc7f51767dU, 0xe42d0b72284cf9b8U,
  0xdbe8ba81564f1581U, 0xd22e4b81c6f69ba7U, 0xffdfde8105052832U, 0x4181ce212f7426eeU,
  0x19e531012c21140fU, 0xb13b81dc1c460008U, 0xfb5ae44553487f95U, 0xf36b0b81f254c413U,
  0xffffcf02ffffafb2U, 0xffffa8e8fffffd31U, 0xffffebaaffffec45U, 0xfa7fffff15fU,
  0xffff9de7fffffd14U, 0xfffffebcffffa6beU, 0xffff7a340000054dU, 0xffffecadfffff9b9U,
  0xfffffb12fffffe40U, 0x51dfffffed9U, 0xffffbb7c00001a3dU, 0xffff4377ffffc2c3U,
  0x1f4bffffcc02U, 0xfffffe5affffeac8U, 0xffffa267ffffeaceU, 0xffffedcaffff8f79U,
  0xe0111e0516ff2126U, 0x1a331837f426272cU, 0xf071430f50c03f6U, 0x132b0e20eb17f90bU,
  0xc5c616ebfbce050eU, 0xc9aed62dd500dcdeU, 0xee3e53ae0a8b7dcU, 0xf8e403f7c1f2e212U,
  0x2401cbd9cd15c9c5U, 0x1bbef208dec7f0a8U, 0xc8f0183ed94e0bc6U, 0xbfe6c4dc1c99c99fU,
  0xc1fd261d02db2a2fU, 0xf8ebfd4226f21a05U, 0xdfff72f44c4cd4aU, 0x110b1317db1efb43U,
  0xedbdfbf2c0ebd1e9U, 0xeecbd51a00e9bfb5U, 0xeae0e4410d02e2efU, 0xe1e6daecf8c9ddd4U,
  0x62ebaedfe2cf311U, 0x1ef52c81a3151ad4U, 0x23be16b4b83437eeU, 0xa50f1cf82fe0d608U,
  0xe5addfecbcdbdeefU, 0xbe96cf0717d69a90U, 0xf1edbf4939d2e421U, 0xedcc0ce7f4c40903U,
  0x14f2c7e4e517e8e9U, 0x1613edbba8f40ac0U, 0xede007f3d73810c6U, 0xb2f3d8e110d9c8d1U,
  0x70a0d01f903250bU, 0x10f81715c8e72abdU, 0x1df921ebec411ff9U, 0xec112cde1809b32fU,
  0xdb19e3e610f0fc16U, 0x10091381d2111df7U, 0x3b704d3f819e5d9U, 0xdc1cf5fcea0ce806U,
  0xfbf727e50005f604U, 0xe0d8eeeab512fd08U, 0x212509f3abc419c7U, 0x19131b28081fb9f6U,
  0x33ff01340e1f1911U, 0xfeef111bec08faffU, 0xf00eefe1fbd5220eU, 0xf0d182c2505d500U,
  0xdc1302d619cdeefaU, 0x5f205b1d4e8e3beU, 0x16f409bcbe0bc5a0U, 0xf30204ede6fcc706U,
  0xd6e71ce205e412e2U, 0xc1d7dde4c4eff8ebU, 0x1217e4ccb7d9d99bU, 0x704fa05ba12bad6U,
  0xee0419fe09d619f1U, 0xc809d837cee7011cU, 0x14f613fdddf2f6faU, 0x27eee617d410f4f5U,
  0xa2f4eb03e99e22f4U, 0xfff704dcfe17f8cfU, 0x23e9fef2e5b9d106U, 0x81515eb94f3aef3U,
  0x92dff9e11bd007f1U, 0xcceef6e7002108f3U, 0xef20fb9f9d2b0d7U, 0xeaf5f8ee9cf2dd02U,
  0xf5041eeb1b070503U, 0xef0dec120922f9f3U, 0xfe061417eade13f7U, 0x33020e26ea34c1ffU,
  0xd6e0f1f2b7e8f213U, 0xc32e1fce3e5ed64U, 0xc1d016ee1b1bedf4U, 0xe1ff13d0dae1e2f9U,
  0xbfd8dd10f5ade3e1U, 0xf33e209e0d09ed4eU, 0xfd0ace99e5dff020U, 0xe6020d1c97003acaU,
  0xfee1fbdd36f0ee04U, 0xe4ed28e8d931df08U, 0x1b2cd6b28df31ea8U, 0x1c330838e835a5d2U,
  0xdcd7b7efe2c7c4d3U, 0x11dfeeb0dcecffe1U, 0xfff514c3b2da11ccU, 0xf617fdf0f2e4cbc8U,
  0xd3dbe703ced1eb09U, 0x800c29507dfe1fbU, 0xe5d9fcfa09f80502U, 0xf8ed0e1ed70d1912U,
  0xf223000901c7e3dfU, 0xd19eaeccd2918deU, 0x7e516a9c64edaf1U, 0xe6331bfaf91a9407U,
  0xe30eda0afee6c512U, 0xf3ea069306e821a7U, 0x9c01a9f101a0b13U, 0xba0215bfd7bbc8e2U,
  0xd5e408a602eaeb02U, 0x30e11020b0e00181U, 0xffce039a43812c0U, 0xe21b0cf2ebf9a601U,
  0xe81821da0c0b32ffU, 0x18e0e522c40421d6U, 0xdc17adf13aea11U, 0xeae912fbf90997feU,
  0xbd1fe333eef2e312U, 0x1e6614c417f22658U, 0xf0d0f4c71f2dc90dU, 0xd2f001c5e9ddf80bU,
  0xc324e71024f0f5f9U, 0xd82e19cdf30b273dU, 0x4090cc6e904d0ecU, 0xf6230203cef0e5e5U,
  0x29e5def4183e0800U, 0x15d71ad6de15f5c8U, 0x2c5206e4c8e211b6U, 0xff2bf40c0f08f8e9U,
  0xd3f2cb05ca0db9c2U, 0x1025c8bb08cd1d02U, 0xebf9f4c8e008d7eeU, 0xbcd2d9e5ecc4e0bcU,
  0xdb16ccfa01e40aecU, 0x24fd0b90b810fde2U, 0xeaf5b5bc1efeeaU, 0xe00ffbec13e8dbf1U,
  0xd602ef130bf31531U, 0x11fb07acb418fdc6U, 0x13d118cdcf13e6e8U, 0xf21ffc0d0dfc9f00U,
  0xf514bdfa073af1eeU, 0x14fa02a4f3ecf4dbU, 0xe5daffb6f5512ffaU, 0xd4ebfa10370aece8U,
  0xfbfebdc00f160704U, 0x7d51d94c7e70081U, 0x2abb05d5c223079dU, 0xc004f0fbfbf7bb05U,
  0xbaf5f0ea1ce40e1bU, 0x3e52ee7b62a1cc2U, 0x20141bd4b7ebc9d5U, 0x23030107d5edb82aU,
  0xdbbdc4cf9a02c7ccU, 0xb4068ca8dac8f22aU, 0x90d6d9b7e1c8aec0U, 0xac92ceaee7d2f0b2U,
  0xbf12d7ccbdcabbc9U, 0xfd00ccdfc8a91202U, 0xc3d5f80bb003c0ccU, 0xde9ca7a7cfcfc3b8U,
  0xdb1308f4edd6f201U, 0x23051802c0d14216U, 0xebd72606c927d2eaU, 0xe702eaddd1c5acf4U,
  0x3ee5fed5eb14cebbU, 0x1fc2ffdcc1f5c9bbU, 0xe10505d9d0031db3U, 0xf9fdb8f20efdfcf0U,
  0x5d8b814e1edc7c8U, 0xc41bdbd2f3d0f37fU, 0xbaf4e8e2f59deadaU, 0xedaeb4ed07ec43bdU,
  0xcce0e709afd8c402U, 0xcb0ad5ef48cafd73U, 0xeae2e3c113b0af1dU, 0xc1b5f0a5e0bf50e0U,
  0x50f5112344401805U, 0x2b090b1a3334e52aU, 0xc2c031008ef332cU, 0x1e1313424d391330U,
  0x451deb222c62f332U, 0x442714e02d28114eU, 0xfa360dbaee15441aU, 0x19290e255734d316U,
  0x5d0d14d5266104e9U, 0x1a0b06dae204fafdU, 0xf8430baae1d845b3U, 0x390ee1325f1cded1U,
  0xe6010d00e8fc0024U, 0x7050e0afef60413U, 0xae7fee2fffad2faU, 0xeeeb0cdaebe7d212U,
  0xc8e61b2720eff313U, 0xc04108cb28270a55U, 0x61e02810fdaf51bU, 0xd08132bc31ae8e8U,
  0xf7e5eed00c06fcdcU, 0xca1e07fed62bf249U, 0xe829e4f5b5c603a4U, 0x3b20e418e835d4e5U,
  0xdde31d0bdbe8f2ffU, 0xd712eb1914fedb0bU, 0xe2ffecf82fddde2dU, 0x15f822ece40df61bU,
  0xfd00eee2ef06eae2U, 0x112dfae833091e29U, 0xf6e80db71922e7e4U, 0xd808e3eee3fff0edU,
  0xe00bf5e909f40105U, 0xf5f918facf03fbd8U, 0xf061318cc2403feU, 0xfffff414e81b98fdU,
  0xa0ce4e6e9291507U, 0x1bdcf8e1eff3e5c0U, 0xef0710d3fa543125U, 0xdc0000181bf4ca34U,
  0xff2b18e7ef102517U, 0x2bc30a1508e704acU, 0xbd10e121b24f351U, 0xc4ea03fb08c89640U,
  0xdb1607fbe8e10f0dU, 0xf9c80a023adce9bbU, 0xdd8082638f9cf45U, 0xeb0a13d1d3efdb2aU,
  0x5e417e80b08dec6U, 0xe200f4f2cc12d5f1U, 0xeee3d51bd6fced8fU, 0xbf9ed0fe9fdc3daU,
  0x1b0a17e4e31415d1U, 0x4ee02d29c2505d3U, 0xf610e9cbae1e2adeU, 0x18f9f710e923cbe4U,
  0xe21d0deff30d0c0aU, 0x221beef1d30bfdecU, 0xedfd11f2e820fb04U, 0x14f4e7fc102a8710U,
  0xd6ded4ccdefed8deU, 0xd0df06d981fb1097U, 0x12f2fec78efcec8bU, 0xcee8df06bffabbecU,
  0xcedd0ae80e070f07U, 0xe3ac10bc811cf9acU, 0x216eaf6bbe503e2U, 0x2eeee05cddd94f5U,
  0xd3ec090a171aedeaU, 0xfca3ee0cd40c04c0U, 0x2090d1a12d313e9U, 0xee04dbebf3fac315U,
  0xce206e9eb140603U, 0xfedce9e3c71be497U, 0x80515bbdcfd1aceU, 0xf317ee050718d3edU,
  0xbb09d90be1081511U, 0xdebb16f009f8f1b2U, 0xeedf9e0f2c9f8ebU, 0xed1beef7df06d020U,
  0xf9f7d950f4020efdU, 0x2105ba36251f1eU, 0xbf10db410cd0c1cU, 0xc6e33202ea180d23U,
  0x23040fef0f2403ebU, 0xfd102a24de1af51bU, 0xff1eff2cf6c814caU, 0x1c1edd372340fbe1U,
  0xe710eed7db0706eaU, 0x5f1f101df001205U, 0xf2ca1723c543e9b8U, 0xd9e0ccef16e3c6d2U,
  0xa50f15e7f4d02c0cU, 0xe6eb03170ae20bd1U, 0x1fab0f051f00b00aU, 0xf7fcf3c9a9e8f63fU,
  0x9010fd29ea99f3edU, 0xd6290cfa382f0458U, 0x10efd63141cfc01fU, 0x10608f08fee2d0aU,
  0xce3712ffcfa3f507U, 0xd823e8fa37ef092dU, 0xffcbde071affcc28U, 0xe3f4fecc98012611U,
  0xb1b6160bc9d3ebfcU, 0xa5b8bd2f32c9c7cfU, 0xf3faef3a37bbc026U, 0xfbb2edb2c8af0609U,
  0x1de9dd10de29d6efU, 0x10ededf9fccce02aU, 0xc2d2d6df03e71c12U, 0xe6e6dfe218f82ef1U,
  0x2bdde6e0073eed9fU, 0xdb9fc011fdec1f0U, 0xdbdc17fb3f3f17f7U, 0xde01c20f1ce30ac3U,
  0x380ecad4123cdce8U, 0x10bff99eb6eed08cU, 0xe323fbb1b5202781U, 0xd2e5cff73d22b7e3U,
  0xea1d19cefe0603eeU, 0x3080c07cdfa060bU, 0xcd70a16da35030bU, 0xf6dee1ffe8fa8422U,
  0xeafb0b09ecfe0f1cU, 0xf9e2f0181207f4d9U, 0x1060c242227f21eU, 0x2407f3161408bb29U,
  0xf606fcf1eaffeae6U, 0x313fbe815080018U, 0xf0eb07dcff20ffefU, 0xf108def10111eef0U,
  0xc01f26f7faad05e8U, 0xfbf9f11ddb04fd02U, 0x80bfbfceee8d5e7U, 0x27f8edf7a8048cebU,
  0xfae205e10401efdcU, 0xd8e7f217e5f5edefU, 0xec30f1f4fbec11faU, 0xaff060a16eaaff4U,
  0xff030ef2f101f9ecU, 0x8f1f6e0f0dffed8U, 0xe3fd20dd0625fe02U, 0xe4f2e7e10fecb0f1U,
  0x1c0ff30e1222e0fcU, 0xecf909d6011ae938U, 0xee2a0081f707251eU, 0x10f7151d1123f3U,
  0x251dfb17fd2e0c18U, 0xded0ad73026f1f7U, 0xf411f39318e31f35U, 0xe61c051833150428U,
  0xf418fc1af70dfa0cU, 0xffcf000b23ededd7U, 0xde1f7022bfb1640U, 0x809f9001101082aU,
  0x3914fc1a0910fb1dU, 0x100218040a050f14U, 0x6e6ecd80ce51d1aU, 0xf6051ff816fe001aU,
  0xfb11f12b1ffafbecU, 0xd2c01b81207fd20U, 0x1702fede17281807U, 0x12fa1d04f416def7U,
  0xfe061af523ff241cU, 0xe0ff150dae1d02d5U, 0x110710f1d1d7f1d3U, 0x130f16fdec16aa0cU,
  0xb2eb171dccbf0c1cU, 0xc50af33327cee81dU, 0xfd9ce7442fe2c32aU, 0xe2d610c7cdd10715U,
  0xbb12e811ece9f0f4U, 0x2c2b1cd014f72e26U, 0x13e318de083be2d3U, 0xe600e6dfdbffbaedU,
  0xe2081fe40cc71601U, 0xdfe41f23b10b15f5U, 0xff041f0db9fbf2c7U, 0x160bfb0ad11aab0eU,
  0xd3d291e294be97baU, 0xa2fe2fbffb5f420U, 0xc597e00d1035eee1U, 0x8db6e781e995e6c2U,
  0xcb341e1d19b8fe17U, 0x344426dfdfeb0d15U, 0x23f717e3f336d6d0U, 0xf9faf4e0baecd201U,
  0xa6fb2f0222c72afaU, 0xe5030a1cd9180efbU, 0x2601fd1de0f0d9e5U, 0x2520f62e990fb1feU,
  0x2b1d0bf31f161706U, 0x1dc8070ecaf207e9U, 0x1c14ff05da042311U, 0xfdfc08e8100b8120U,
  0xfc0f20e727180616U, 0xedcc03e8e604f0e0U, 0xf9351902faff10f7U, 0xd1d15f8190ef106U,
  0x142b17fc0d1be312U, 0x3d509e1c4ef18bbU, 0xf81902e4c70e11e5U, 0xeff2f61025f4eafaU,
  0x10df40111f50e0cU, 0xe31810cc1901ff2bU, 0x251c05d1d6c8f9f0U, 0x1325f213040a18e6U,
  0x1ad516ec00031e0eU, 0xdbe912e90e0607d5U, 0x101debd6f8c5eaf3U, 0x516fe2b1c0e0d0dU,
  0xe60ee8fbf0e5130dU, 0xb231ae0fce72335U, 0x9cf11e50af5c326U, 0xf4fff3e3d9ef3127U,
  0xef05eb2bf813050dU, 0xd93de8ff22e81a79U, 0xdc13e5d70fcec828U, 0x22f420ece31169e5U,
  0xe6e1e91ad105e6e1U, 0xa916e7ec42dbed23U, 0xccd8d5f111c6df4bU, 0x5d2f6ccefc453e4U,
  0xf9f4c8f3c6ddf802U, 0xe7ede4cb37b9f3f3U, 0xdbceebfe2805d641U, 0xcdbe06c2e8ae23f5U,
  0xf20f0beee7d7dfebU, 0xec1ef5190e07031aU, 0xef18f6eeebbceadbU, 0x2df00c34f7090608U,
  0xec101fc30c25f2d0U, 0xbf5fef6c609f0f7U, 0x8ee1bf2bf4010e0U, 0xf20add1d0be0c4ecU,
  0x2410fbe5f1fd0b26U, 0xef805fdd90fe7d4U, 0x1df228f4ea26001fU, 0xedeef80b09dff131U,
  0x95c4f302cad9def0U, 0xbe15db0c0bf30032U, 0xfd0bf616f3d0ba06U, 0xeff5f9cf95fc11d8U,
  0xe42c1b0df0260434U, 0x282de60cf5ed182fU, 0xe5edfcfa0e6b1234U, 0x2ccfec28092c2d37U,
  0xb72c31f9d9cb38fdU, 0x19f3c5311acc0adbU, 0xf8e3512fe3ae50U, 0x1cce0cb5a9d00f2bU,
  0x1fd5e5c3dd06feafU, 0xefd3b6e5e204b907U, 0xc92fc7edb8900feaU, 0x13f6c224051bf1deU,
  0xd0d4ed058fd6a8e5U, 0xb2fda0f028eaed35U, 0xd4dcbed30b81d308U, 0x87adeda3fcc35ae6U,
  0x23eec2a5def6caacU, 0xeba8dbb8f8ccd5aaU, 0x9dc10816ec202cd3U, 0xb8b390b015c8cfb3U,
  0xea08b9ecdfdae1f6U, 0xa2208c9ffe8ff22U, 0xe1e30c00fc2febc6U, 0xbae8d9dadde4dee1U,
  0xed1e12d21bf219fcU, 0x17251209aa0f0e0aU, 0xf121b1c861cf8c0U, 0x16070c0cf7f6e410U,
  0xdbf302f0fce30befU, 0xfbdfee1dd0ffd4ddU, 0x901f2edecc3e4efU, 0xf4fd1103f30fec04U,
  0xd61bb2e3e7ded5f7U, 0x283e16b2bfe4031eU, 0xe2cdfff6df2c0881U, 0xb2fce1c5e7dcbab5U,
  0xf820fdef24e2f819U, 0xd0a0018a60211faU, 0x1b0efd1a912209c7U, 0x161e0f10de18ac09U,
  0x8dd08ecebe714f6U, 0xe3f9fa29dc0af61cU, 0xef16f71de9bff6fdU, 0x4030e1efe0c0dffU,
  0xe90dcfdc0fe7e7ebU, 0x12190c96c6f81023U, 0xfccf10efd924f4c6U, 0xd3e1dfeff1e6a7e7U,
  0xde1b08fa1ad42701U, 0xffe616fdb102f6daU, 0xc16070db3fef2c3U, 0x91c0111a91abe02U,
  0xf7e91601f718150bU, 0x1d4ec2ee7f4ee0eU, 0xfb14de22fd0502f7U, 0x120efd08fcf9eb05U,
  0xeb0de927e4f8ff25U, 0xed3e0fbb33253156U, 0xe80300d9f2e6f702U, 0xe905fb1ed2fa44fbU,
  0x3627fe022116252bU, 0x2a240d291c021bf4U, 0x7021af412383115U, 0xf9140231251b1c11U,
  0xd319001df3b81831U, 0xecd9f6142df60befU, 0x1ac70f3f50e6d75bU, 0xdff32706d7f22d4dU,
  0xfdfbb71cd6e7def3U, 0xab2cc6a822cb0770U, 0xd4d5f0a7faa8c11eU, 0xc2c4f3bebbd950c1U,
  0xfe8031e9e16fff9U, 0xc417def334ad142aU, 0xdcd5d1f22fd1e548U, 0xe4c918a9e8b54c04U,
  0xf7baf5d4bd00ebe0U, 0xd7a8a00e0fa0ce9fU, 0xd6d1002e37fec306U, 0xd6a2df89089a05e5U,
  0x1fd0aac1e029b5ccU, 0xc8bdfaec3d9ca98U, 0xb9e9f5dff10e1addU, 0xe6ddb7042df6f2cdU,
  0x35f0b6a7031ecedbU, 0xd9df5adcdf8d6b2U, 0xd1e108d9a21a0f8dU, 0xbad8b8e529e4d9ddU,
  0x51fe8cdfd1603d9U, 0x1e70ad2a2f213cbU, 0xed2618ca81f61cbbU, 0xcf9c4fa0515c4ebU,
  0x91811190b081a0aU, 0xfd091a2808fbfa2aU, 0x1525fe1b17c4f508U, 0x1112ea000e2c1918U,
  0x13fc01fcf5fb07fcU, 0xcf70f1503f82113U, 0x404fe37f34015efU, 0x1618e30df90cf917U,
  0x271d0df301150fU, 0x1aef170108f607c5U, 0x15f536420b28f33fU, 0xe41900e804e0002bU,
  0xbe10f919def4dffbU, 0xd12a0905290c0f25U, 0xe7e908121ec5c11fU, 0xe70316e8c20818ecU,
  0xf70111fb0702110fU, 0x725faf417010c1aU, 0xebfdfbf90eeb1f1bU, 0x1fe1cfede0c0b04U,
  0xcd1e28f3cbbf07ebU, 0xe7cbdd4f01cc06c2U, 0xee8eb3413ebb03bU, 0x9d812b0b6e30a2fU,
  0xfc4f4ecea27f8d9U, 0xf200afebd4e7d423U, 0xe203f2daf3c825f9U, 0xe9ebeb0e3d1b0bdaU,
  0xe2bacf07b3dcbfc3U, 0x8fef9bed12b2bb1bU, 0xa4bbc5d7128dcdfcU, 0x989bf198d0c028d4U,
  0xd08bacaba0286baU, 0xffceebcee4d2f8adU, 0xd9e1f0fedcff0e9eU, 0xb7b9c5bd18acc881U,
  0xedfd16fa0bdf0d1aU, 0xfa150115cd0900e7U, 0x2111191ae1ea0d98U, 0x15280121d926b706U,
  0xf9d7feea14ee1305U, 0xc6eced02ac1200f1U, 0x10bf70cc5c007d5U, 0x15f4ea06df18e4feU,
  0x8eb1af90c2107f6U, 0x9ecfc0eda0604f5U, 0x4231605de0412fbU, 0x1ef805080d1bf30bU,
  0xaffe19fe1cd10613U, 0xe0e60827dc13f2edU, 0x220cfe42fcfae3e3U, 0x1f18f5089e0eb917U,
  0xd9e807f1f8de0ef6U, 0xe4dbf510b903efd7U, 0x2f3f11adddbe7d7U, 0xf011060addf7e7e9U,
  0xda0a04fef7f50702U, 0xf8f6e919cc0f11f1U, 0x1604fe19d10df2fbU, 0x180a0e16eb11dc08U,
  0x8d12f50c13a3f4f8U, 0xfae911f1ed1608f1U, 0x4dc0a1ffdd0b0d8U, 0xe70dfaef81f7ecf0U,
  0xb9fb07ed03be1805U, 0xdff00901c3fae2e8U, 0x13f3ee04c8e3cee0U, 0xf8010e07b50bcb03U,
  0xfc0f1efcfeeb0c17U, 0xfa18f30afd111725U, 0xfb00f41ef112e9f5U, 0x220a081eef16e308U,
  0xc508111824d62d27U, 0xf6072b28d41716f1U, 0x30121d39d4fff0e5U, 0x23091ffcdc01eb0bU,
  0xebf12e2902cf031dU, 0xc2060d3f23efe60dU, 0x70fea3f2482e318U, 0x1a0f13f8b2021811U,
  0xcdd402f3dfb9d2feU, 0xd903d415fbf7011eU, 0xd9fdf505f503e5d5U, 0xeeebe70ded091ff4U,
  0x8d1316f525c31d0aU, 0xdeea1429f730181cU, 0x406040bebd3b9f2U, 0x2a16f921812fe11aU,
  0xc1ad01ff0dccf7f7U, 0xaee4e62fff05cef1U, 0xe290233f7e3cbe3U, 0x15f3f61cc403eff3U,
  0xfa05cbec01efd2edU, 0xe9fedae7eff4e31dU, 0xe6db04d2d115ebfcU, 0xbde906f40ed2f9e4U,
  0x98071614fcbd1314U, 0xc606f404181b0223U, 0x140d001a03c2d433U, 0xb210c06a708ec02U,
  0xf3cb0113e0c919f9U, 0xd4d3e132fc07f0f3U, 0xd7fdf61f0afee108U, 0x1cecf705f6f6ca13U,
  0xbaeae0edc8b1c3d9U, 0xec07efe1fadf1019U, 0xd5b7f2ee11e4dc21U, 0xe5d5e4c2d6c106d3U,
  0xa91edbcee89ac50bU, 0x606fd21d1eb2615U, 0xe4c4e205f83babafU, 0xeec503ba8e8bc0bdU,
  0xeb1306e0fae42509U, 0xfdfceeffc2000e07U, 0x1bee0fe5812dee83U, 0xfc06efe6aa0790feU,
  0x14f4f9ca263dea1bU, 0x19bc1529a62d00bdU, 0xd18fae0c41748d9U, 0x132c05473724c70bU,
  0xcb20c3efd8d6cadfU, 0x1b3a031af2d2152bU, 0x4eace1ef301c9caU, 0xd0e718fdd9dee4f8U,
  0xd90ffbd00ffb1ce4U, 0xff201bd2defa1129U, 0x11f4fcf6d70cd4adU, 0xf70f0811fd108f09U,
  0xd11e14f701060403U, 0xf4ef10209de7e4efU, 0x2a032107cce107a3U, 0x16f9110ed7ede8f5U,
  0xd9e1d806e8e8ebd4U, 0x33ff6081aeddd38U, 0xfcecd6521ce4e901U, 0xf3ebe6e4d1f5e4ecU,
  0xa005d20a28c0f20aU, 0xea1b35ad18171039U, 0xafde2d8f415a2d1U, 0xf71decf088eee2c8U,
  0xaf8f71340170b30U, 0xc1327ffbe4a292dU, 0x33491bb3a9e612c4U, 0x2426ed421e1bddf5U,
  0xeffe01f718c92102U, 0xe6ec1017e012170dU, 0xf2d9fd2a01efe814U, 0x10192a0ec70dd624U,
  0xead3fb0be9c2040fU, 0xc1ae42707f21040U, 0x7a0ec05000b0920U, 0xff6eefdd2dc0a1eU,
  0xe81852d6f6e312e2U, 0x6e7db6509ead7baU, 0xfae7fd7f0b49e014U, 0x45e4c01eb7f9060eU,
  0xd50f2cf608bf080dU, 0xb9f20d410007f1f6U, 0x1d19fc3001a1cdf6U, 0x1280e07b50c04fdU,
  0xbe0aeaf9e4b3e7deU, 0xcf04e313f009dd13U, 0xf4f5e3eeedf8d2fbU, 0xdeede9ebd6da14ecU,
  0x3d312bfdaf2c1f4U, 0xead1bafbe6b4dfd2U, 0xbfeef412e90111eeU, 0xce6e3f2f0d0dee0U,
  0xe4dbdeefd0e4fff1U, 0xe2bed1ffe0e9e6c2U, 0xe80eee1ee6d3e905U, 0xf8fd1f13f6dfe7e6U,
  0xd7b6cad5dbb6d3ceU, 0xc4c3d7efe8bfd4b3U, 0xebccd1d3dfa0afe3U, 0xbec0ecb8b6d6c5dbU,
  0xc7dec711c1e5aff2U, 0xf3fe05c9ecf001ffU, 0xd6bdf2f2edf2f1f9U, 0xaf0dd2b6e2c3d7c1U,
  0x71f47cb14351de9U, 0xffe8ce1ff1d2f2e0U, 0xe0371f122847fb43U, 0x45d5ea13070ea223U,
  0xf2dd29fcdf19baf8U, 0xb08b91c60e7ee54U, 0xd33017d37426f255U, 0x1fcbd0df0af8eff2U,
  0x19cced94f510e9b9U, 0xf0ff6ddd1ddd1deU, 0xbd210520fd411e82U, 0xedddec2e1f15a5c8U,
  0x1124f6f9320d0113U, 0xe6d11af80916f7e1U, 0x1d401daadca11129U, 0x3a4c255f032bfc06U,
  0x152ddef60d200ff8U, 0x25ceeac5f4e903caU, 0x1fe15e9e6082d05U, 0xca20e324231df323U,
  0xd92509ef12e60818U, 0xe7dad51b060629ccU, 0x19ba142630f3eb0fU, 0xf804fb02efec0b1bU,
  0x2cddc0ddb0f0af1U, 0xc121fad92d17ee3dU, 0xe02df1ca39811553U, 0x1fe102fec114d0fU,
  0xf3e01238ace7d2dcU, 0xb504ece140afe1d8U, 0xd8c4dbe3529fc641U, 0xb9e2e5bdbffc43e8U,
  0xe8acf5cfb5b3ded7U, 0xe6c8e2f122d5e2bdU, 0xe2a7110712c099fcU, 0xe8c9d499c6a1ee04U,
  0x4fde7ed031ffff6U, 0x20e6ffc9d307fbb3U, 0xfcddf6e3d60622e8U, 0xd80b04020b08b1f9U,
  0xf70e22ea0cff1723U, 0x2ee81607dc040ab8U, 0xddf0b1cff28f61cU, 0xe3fd100f03f5812cU,
  0xd01e2706f1d31b03U, 0x5d1fb3523f000ccU, 0x10f6fe2b29f7002dU, 0x20fe07fcf4ffcf2dU,
  0xdbed0bdcffe50f0bU, 0xebd0edfcdb03f1cbU, 0xf2ff06d000d9ed09U, 0xff0a03d1e3ded610U,
  0xe90003f9f9f705fcU, 0xe1e9fb0a0efcfbffU, 0x1df9fbfee9dbecU, 0x16ed0404efedcaf7U,
  0x7d2f308f12c0103U, 0xe6e8f3f2fe15e5dcU, 0xf623fdeeece70203U, 0xef4f41513fce6fbU,
  0x28eed320fe24ee09U, 0x5090be82008f409U, 0xfb10fec127e81422U, 0x101b140d390e11fcU,
  0x2cf1e900fa2ee10dU, 0xf720f8be27060a24U, 0xf91c01a620c11c21U, 0xdfdea2a132415f2U,
  0x1ff6dd1b012ffaf9U, 0xf0fc03d51c10ea33U, 0xff0211951dc22c16U, 0xf6f30b10170308f2U,
  0xf9f0e3f8e7effc0dU, 0xefd00cebfaf301e4U, 0xf7f1f2ee07f2f2f7U, 0xd1131c15c805d7e7U,
  0xf00af1ce0ae7fffcU, 0x6f218d1c2e011ecU, 0xf6e90cedc3fb01c1U, 0xfcfc17d7dcf6a0eeU,
  0xd6ef221ffecd2231U, 0xf900e328f4f0fbd8U, 0xfec2141b2c0acb71U, 0xee052dd9eacabb3fU,
  0xcae2fe0518d51106U, 0xcee800bee5eff2b5U, 0xfa19fadbe9d6d7d8U, 0xfa25fbf712f5e8U,
  0xae0e17f400c810f5U, 0xe1c1ac2f00aeb0aU, 0xfdd405f3e6ebe1ebU, 0x4f4f9faaee8bbddU,
  0xe022f00f41212f4U, 0xd2d4093ae316f2b4U, 0xf42bf8ece4f220f8U, 0x41160f17f015c506U,
  0xe4d4f1d109d5e406U, 0xdedf0ac4c0f7eee4U, 0x12df06e7e19fd4e0U, 0xd8f91fe9b1e1dcf9U,
  0xb608ec0908dce313U, 0xe72efde3e404f93bU, 0xf07ecc8daf2e107U, 0xfb0604ebb6090be9U,
  0x1afae20a3b12f7feU, 0xde302600ff320d44U, 0x101a0881dcf93ae2U, 0x382a212f1f2713d1U,
  0xfbf9c2ecea1fd8ffU, 0x39e0e7c1b503eeecU, 0xf2f620d1af5306d9U, 0xc8eff000f8ecd5efU,
  0xcf291ffc1bee1a17U, 0x809030d01fa1adfU, 0x1ee5f41c0c39e10fU, 0x1010901da06e40dU,
  0xbb1730fdf5b93af6U, 0xd60e065520f22209U, 0x21eceb4a23f7c420U, 0x11fb100d9c180a34U,
  0xf9291b0a0f251b11U, 0x42c2f80ee3f3efcdU, 0x21d4005b19ff1341U, 0x150bf30f1401e039U,
  0xa7021408ff81f1f8U, 0xd9f2ff232e040e24U, 0x8ecee1b31e5ab40U, 0x5fe04e1cddd130aU,
  0xb5eb06f2e3a2f1edU, 0xb7edbb4707dde0dbU, 0xdaf6f933f1ecb5ecU, 0x1cd70af5bbd40102U,
  0xf4d2e739da08dc01U, 0xa7f6f705380bd916U, 0x22de17569ce115U, 0xf30207f6f6f91afdU,
  0x15dffff0df1eeddfU, 0xefe5f0f118ebdc0eU, 0xcce7fa03d2eff8d2U, 0x1bbfe5e50113dfefU,
  0xdfc9e4c4c3b9d6b1U, 0xf313d606b7e8d3f4U, 0xc4bcfe08c2c7c3cfU, 0xd9b9d4efc2d5d3beU,
  0xe7331ddd2af4fe0fU, 0x2cfa06f498072ff1U, 0x1eef200ea34e0db6U, 0xf4eeec091a06b2e7U,
  0x7071fd6ec080af5U, 0xc9c4de1ebdedd1d2U, 0xf0ee102dc4d1ffd3U, 0xf1ce82fd30be3fcU,
  0xd890f5f3daf101b2U, 0x8dc7c928d3e7b6eeU, 0xc700f232f1a4d0d5U, 0xcbbb9f5aae30cd5U,
  0xc2f3fea05fb2225U, 0x4afa232fec0f17b8U, 0x2fda375c0e46f708U, 0x22514f01718bb14U,
  0xc8eb19ecfab3f105U, 0xa7abed11fe14fc88U, 0x1e0b023e0fcbd908U, 0xef1f1316ddedc1fdU,
  0xe1e1f5e7e704dfe7U, 0xcc8fd6febc0bca81U, 0xcd22090cf8eb00e0U, 0xf8dae01905109cc9U,
  0x8de7093702c50129U, 0xddbde61b21eadaf9U, 0x19e8c1483093bd2dU, 0xae80100b2e71c1cU,
  0xdca3010fc8f10401U, 0xcd98c50137baa8c0U, 0xdbf9ca283dd1dc2cU, 0xffbef0ef0deafaefU,
  0xe5b0b7e1d4ecbde4U, 0xdbd4cdca1cd1cbf9U, 0xc8eadbdd1bc3eedbU, 0xbbc608b602bd02bfU,
  0xe08e1ebd8f5e2e8U, 0xb20f3fbabfe1e05U, 0xe8f218ead8130eaaU, 0xe1e4d6dd0a11b9d1U,
  0xf92f16f604ff1806U, 0xdfa1e0faf0cffe1U, 0x19f814f2b707f4e4U, 0x1d05f9ecdb0dc31fU,
  0x1eb10f5f9101e00U, 0xecb9f61202fed7b9U, 0x16220904fcf2101dU, 0x1cf013090a03f923U,
  0xb21e5ef14fafafeU, 0x201110a5c0f1fbefU, 0x1b0410eab60f22b7U, 0xf7ffe9ff0bfeaff9U,
  0xe7040ed5f707f9ffU, 0xedd218f9bc27fed2U, 0x10200d04ccd9f6deU, 0x1411e622e10ecd0cU,
  0xb0cef0a2024000fU, 0x1bda080ed40801d4U, 0xfc10fb01d4f8200aU, 0x42607161807d0f9U,
  0xff07fdf915e4030fU, 0xff091ce4ebfb10ddU, 0xfaeef6d7ec0a03c9U, 0xc18ebf6e413c2e2U,
  0xadfa180bfcb3110cU, 0xdfc00afde70d05bdU, 0x12f9f5e0dd87d612U, 0x140905069802d610U,
  0xad0f1a20f1b8080bU, 0xae0fdc0236e5ecf6U, 0xfe5edfd2381b94cU, 0xebe50ee6b1f72a1fU,
  0xc6f7fcfe06c8ef05U, 0xd50aeae9e501020fU, 0xea21faf603e4ee0bU, 0xe5f0f208eceafff6U,
  0xd817d70bd7d7fb0fU, 0xda0de6eb06f9f928U, 0xe6f9d0eb10c3c121U, 0xfcef0af5cdef2006U,
  0xe8f0e7f80414dee4U, 0xeceef0e92d07e81bU, 0xe2fdead91bf2dd02U, 0x1004e307fff20cd3U,
  0xebd3b9fed7d6b4d6U, 0xd4ccc2b80cc3e2fdU, 0xafd7cfca10d3effaU, 0xc5b3e0bfe9b0f1cfU,
  0x26f981eee51bd4f0U, 0x6ed07a214fee8eaU, 0xe0eefdbc120f26f4U, 0xb5fee8f41bf3e5d4U,
  0x2509f7e00f37110fU, 0x1fe9fbcdf11f16e4U, 0xf70324baf83633fdU, 0xdcfffb1125f39b1cU,
  0x2109d8e3fc11d8d6U, 0x1ff8f7a7c4ff03c5U, 0xe1011cb5d84d0ed2U, 0xede7def223f9bbe1U,
  0x42914fefa282019U, 0x26f2ffe306e415e4U, 0xde18e906392420U, 0xfffc12fc2609ed3aU,
  0xeef41934efd4131fU, 0x12e2f327221007ccU, 0x13e600e644efee69U, 0x1a0113e6eefb1236U,
  0x2518ea21112ffc10U, 0x200217d43838f521U, 0x72ef5dc25ee3542U, 0xf63a1d364529163aU,
  0x3416dd201116ec27U, 0x151d1ede112bf020U, 0x2914f1b504bc2728U, 0x181810152d3b2df5U,
  0x16e81afb0d0c0b02U, 0xf8cbf6fad606dbe6U, 0x333e3e3d0b427f3U, 0x322ee41c09340c14U,
  0x83e7160fe1a0ff08U, 0xbcc80c011cd4f5d4U, 0x1b20fae507bc8133U, 0x10fb00e89ae70b20U,
  0xd002f21fdde9fb09U, 0xa71fd1e34c0a201fU, 0xf41bfeeb20e4ba3cU, 0xf0ee04d49ecd3b07U,
  0xbcfafe251bc4f418U, 0xc31ee1c72afa0c38U, 0xecdbe0df2dccc209U, 0xd51df6fcabec3dddU,
  0x2fdc0ca5fe0b0dd6U, 0xf9e8031dc40cf4b6U, 0x151918f8a1f22892U, 0x2710f836222ec9e3U,
  0x12dbd79c0b2e02b2U, 0xd79ff600a4f7d9c7U, 0xd11ad7b88dcaee86U, 0x3fddd08f6eed0d0U,
  0xfdbfe4ebc4d1b8c2U, 0xb0dece9eebc8e0fbU, 0xc7d2bcb9f2aedc12U, 0xc7a902b3e5cb0dbeU,
  0x231020e7162110ebU, 0xe4e1fef6f016feecU, 0xf2122a3e4ed16e7U, 0xc0af51c04099d0cU,
  0x2f1731c7102cf317U, 0x19c3edfaa904ffc8U, 0x19260e8ebad0fc27U, 0x34ea0a0c16e69423U,
  0xf6ef07fcf2fce70bU, 0xfc2cdf313edcfe4bU, 0xeb29eccd3514cb49U, 0xfd5e9e5f5fb0122U,
  0xfadffefb04ff04f4U, 0xf41324bf33f00c48U, 0x16c6f58633e4f01dU, 0xf424f4e8ed172409U,
  0xe8cf07ea1de317e1U, 0x99fff1dcfb20e73fU, 0xe5250985b781e5e9U, 0x1ef2d606fc09ddc3U,
  0x33c1c3b7fc2fe8caU, 0xfac9fff0bd07f5f2U, 0xe0330bd2b088f1abU, 0x2ceddb1617211af1U,
  0xdce22116c7fa1befU, 0xc706de3532fa0d12U, 0x240bdf002c0de434U, 0xa05f8b4e1d90114U,
  0xc1e8c9f9fae4d010U, 0xa543dfc44afbe735U, 0xfaf60daf27fcf82dU, 0xbea130adc0043c6U,
  0x41e7e1040331e605U, 0xd7f4dfc00805d918U, 0xfd1108a7f8cf0702U, 0x1417d52d2feedcf1U,
  0xdd04ededf5e1fee2U, 0xdc25faf507ef1828U, 0x17f8e9250e14dc00U, 0xcfffad9fbe2b7fcU,
  0xbf1ee8e719faf5f3U, 0xea14f0ea16260821U, 0xfbf7fcdf0f2cfcd8U, 0x1ced02f5e90fc4e7U,
  0x230b32d8150b0c06U, 0x10eefc4bae0bffe5U, 0x12193610c70627d9U, 0x1dfacefe150aeafaU,
  0xd6dde00edb04bdddU, 0xb5efeff23a06d7f3U, 0xd7f4caea3ccaee16U, 0x200f1ebfbcbfdaaU,
  0xa2f0dbfce9afd10aU, 0xeb0c1cf2c9e90334U, 0xf5f0fe09fcf3dc81U, 0xf903f6db9119b6a5U,
  0xd41337da34da04e7U, 0xea1524459118f51cU, 0x290c131e92f3fe9eU, 0x1b09e735d22ea6dfU,
  0x1ce89bdc0ff8bedcU, 0xfefbf7a413d0d00eU, 0x717dcc6eac929f0U, 0xdcd8d7f000fbfed9U,
  0xc5e0dd1ad8f1d305U, 0x2403f0fdf4f53eU, 0xf22405e5e3e3d4ceU, 0x101debdabfe2fcc1U,
  0xf81e0ffc39eb2f09U, 0xf3260aefad2d324cU, 0x253b1dd799121985U, 0x5a1b0d52f55b8ef9U,
  0xcce9e9f8abf995c9U, 0xe907e1b9dce00142U, 0xb0deeff4c833dbf4U, 0xe5c5e8bcd5bd21b2U,
  0xfc2ce824faf4e6faU, 0x201224d804ee2613U, 0x20072bf2034012f5U, 0x3081be431efff12U,
  0x1f0540f41e1b2100U, 0xedb030f010c0ee8U, 0x2d2910e7d618fe16U, 0x29050716141c0e2cU,
  0xe81988eee7f395b9U, 0xf6f6b781ccb7ea38U, 0xabd5f1adc0fdf8cfU, 0xcaab90cd13d1169dU,
  0xc70ec21b0bfbe807U, 0xcb25ed84431f1444U, 0x19eaceab32cde43aU, 0xc5ece21af91c1dd7U,
  0x8f8fd13030c0b10U, 0xeb221fde571af051U, 0x7eadc8924cdf34bU, 0x25071b0cf5275006U,
  0x45cf34f6024ffdb6U, 0x1fefd50ce6ddc902U, 0xfdf8f7e6fde134e3U, 0x23e5ec1b291afb10U,
  0x44b8d910d343bfe4U, 0xda0fc0bf1eb2f40eU, 0xcefff1ca38b71e15U, 0xc5e407d91de672e1U,
  0x2dd0a838c41ce20fU, 0xd9fdcb9e58cfdc3fU, 0xd2d7e8d335dde838U, 0x9fdb1dd20ce679e0U,
  0xcab6d4f4ccf5abbbU, 0xb5d6c7f1f3d0c3f8U, 0xdcbad304d8d4cdc9U, 0xb7dac2ddd8c9e1aeU,
  0xfdba95cfcb0193c5U, 0xd8aece9df4c0e9cbU, 0xb9e5ced3b9f1f7b2U, 0xd3c9c6e934def681U,
  0xe6d3d536a9f6b3c4U, 0xd1eccfd62cbeca1bU, 0xbbeadfe618b1f32cU, 0xcb3e2b412ea46aeU,
  0xe606a3a8e8f5c0e8U, 0xf8ccdeb38dddc3daU, 0xb8d209f7a343deb8U, 0xcce6b0d5fcc101eaU,
  0x2112c8461930d8f4U, 0x22f1e99dede9043eU, 0x314f2adff25193dU, 0xd9160e0c1eeac718U,
  0x2ce8e90afe44e0e8U, 0x10e009eae52ae6d9U, 0xe8111ed8facc1cd6U, 0xff6d80242192bbdU,
  0x241206ddde1afa0cU, 0x804e61121f511ccU, 0x6e31623030e2037U, 0x7fa000220e1f82fU,
  0x26170b3c163cfc05U, 0x2c1ae1ed42f70612U, 0xe028effb3b210a41U, 0x10fefee729d62a24U,
  0xe11ef0a2138e91bU, 0xf5051ac91d2026ffU, 0xf0031ef7071d08f7U, 0x1d1419251314e1e2U,
  0x28cac512e6f4061eU, 0x1723cdd92ef3e9daU, 0x1addc4be27c81346U, 0xcbdd0e021de7fe34U,
  0xac1ca3fe10cae1fcU, 0x223c24a203eb2819U, 0x23921ab9272bcbc0U, 0xb2f907b3e697ace9U,
  0x8e233e30f382201fU, 0x1e13a39d006faa7U, 0x20cd02081308c84bU, 0xf30b33c9afc9b23aU,
  0xd6dbcefdcfc9e006U, 0xf725dfdf11b9f2ceU, 0xe3c40a0df40df1f2U, 0xc2f3dabdd3b8f6e2U,
  0x941ac8c3e183051eU, 0x2e12f8d7bf0af5efU, 0x369f12cf8a21e6a8U, 0xee1212b9a9b4810eU,
  0xc9d8281024c03422U, 0x97a3ea32f3efebb0U, 0x252b083ef5c2e815U, 0xd0a2404b623913aU,
  0x90ed92c4eba5abc4U, 0xf8300194bbeffbffU, 0xe8a20fd3c230f090U, 0xb7ecd390b1dae2bfU,
  0x86180f23069023faU, 0xc0e2202ca081f44U, 0x27fedfecec12a80fU, 0x1d161c01a609fb26U,
  0xc2e23a411ac805f2U, 0xf6f0ec521215e72fU, 0x50cd94325e3fc25U, 0x16f71042c41fee01U,
  0xe90401020cf8e9ebU, 0xc2512dff013111bU, 0xace03fde714ed0eU, 0xe1fb10e804f6f2f0U,
  0xf6080202faef231eU, 0xfc03020c1b0d2208U, 0x1af606f82613ea10U, 0x1c061901dcf42218U,
  0xa3feec15f081020fU, 0xc5f6e7f51bf61402U, 0xbceea1f20e0a41fU, 0xf1f806f092d50107U,
  0xc00cda16cfe7dd0fU, 0xbd1ed1cb45d0fe3cU, 0xf0d5ebe113d3d136U, 0xe5cbfcbbb6c83d05U,
  0x22d7de17d211e1feU, 0xdce0d2ff39e809d7U, 0xe9d7ff07222cfc23U, 0xd7c5fad91cc82c11U,
  0x28e8c8dbf22cf8d5U, 0xfbc0f8af01ee03c8U, 0xf60322e9f62312e1U, 0xacfbdae82dd5d6fdU,
  0x20dda3abc71edcb9U, 0x20bee1b5e1c8d68dU, 0xd5d30a00d02712a8U, 0xb6cdb2d422d604e6U,
  0x191fbb18e813fbfaU, 0x12d5feb9c2e706b1U, 0xd0006d9e62b020bU, 0xbff803062406bc06U,
  0x1e0eee2e23240a22U, 0x25da20c5fc0a08bcU, 0x20f500befb0e1c17U, 0x30d19191e11f220U,
  0xfaeeedd9f514d8fcU, 0xf4c9020feee2fecfU, 0xecf90d15ee01f9f0U, 0xebf6e80826efd3f3U,
  0xe417d3c6f8e3f3e9U, 0x2a00f7c1ca000821U, 0x1dd811c1ea2501c5U, 0xf6fc0bf7feecad05U,
  0x5e83f05f7f71c05U, 0xf3df1240d214fbc7U, 0x1c1e180ffad1f00cU, 0x1ff12b22d119c10eU,
  0xe6e1f202ef0a0cebU, 0x10c3f70609f7e2bcU, 0x7f3e7d304f0f3f4U, 0xff1315f90900eb01U,
  0xc807e4f6e9e4e50dU, 0xe30e14ec0ddd1911U, 0x12f2f0cc15fdd3eaU, 0xf50c19d7b3ecedecU,
  0xcd90bf4191cf0fdU, 0xb805f20eea25e404U, 0xfd42f8ccfad327d3U, 0x100bee210d20d3d0U,
  0xf1cd040fdc17e0fcU, 0xd1dfe40bfae5d0d5U, 0xf6d5e9f813c50416U, 0xe3cef8b424c9030aU,
  0xdbe1d620cffceef0U, 0xcf12ecf60dd9e621U, 0xddde01ea0ee5ed14U, 0xcfce08d616f018f9U,
  0xe615d5f401e4f004U, 0xcc171785fb1bf13aU, 0xf11706810b101ae0U, 0xecee0402fc15f1f6U,
  0xfef8150ddff7f9deU, 0xfcf6f6ef17f30405U, 0x3f2f5fe2019073bU, 0xddff22d903d6ec16U,
  0xe437eaef06f407U, 0xe5ffec051cfdeefdU, 0xf80ada140ce3fa04U, 0xaef101d00fdeb02U,
  0xac8dbae0013deafU, 0x2fbdfe4bd18dee7U, 0xdb05eb16d4112381U, 0x4fcd01c060bdec9U,
  0x16edfeec1c3718faU, 0x25cb0dcb01fcfabaU, 0xfc19f7d206fa2004U, 0x131af9ff1b1505faU,
  0x2310eae8062507e9U, 0xaf117bfe01f15e3U, 0xea26f4f2e2e1fcf6U, 0x324e926eb160e05U,
  0x1f16d5ed0a24fd02U, 0x1cccffc4bd1407b6U, 0x1c1402afb3e726ceU, 0x15f5200800ce00U,
  0x20706060206f616U, 0x15d410caee1ceac3U, 0x917fce911f427d7U, 0x9080b1cf7fcf704U,
  0xf71cf2da2a100afdU, 0xbf7f4b1f6f706e1U, 0x2bf8f9a4c1df09d3U, 0xe19f6ebf0f7d8dcU,
  0xd510fbf021e00b17U, 0xe7dd16d5cf23f1b3U, 0xb13ffeed0bc08f7U, 0xee221f13dffaba09U,
  0xd4100be0e8ec1709U, 0x1ad8fe26b0d3fa9cU, 0xf9f20f32e839e522U, 0x6eeece0e1e4811bU,
  0xe91b1aeaefddfd05U, 0xe6e6e70716d004d1U, 0x70dfe21270dc818U, 0x2da06dbedeca513U,
  0xd8fd09fedcbde5e2U, 0xd7f0c5fe0bcd01ffU, 0xcbf2ec25fcc8a0f0U, 0xfdc2e3c3c8dac6ceU,
  0x1e03ec012821f311U, 0x17d9fbe3f008f7f4U, 0xc49fda4f1e62a05U, 0x2e091a21240fc3f6U,
  0x40f6eafff83bf2ebU, 0x6030be5f316e21cU, 0xe6431cdcedd62d1dU, 0x1afb0816280bece9U,
  0x16edeabcf52fe7c6U, 0x6d3e808e908de27U, 0xf212fefcd0df06e8U, 0xa08dc010a140dc6U,
  0x14ead6211120f510U, 0xea07f7e04610081fU, 0x1f700c247cf055bU, 0xf2050b2102214606U,
  0xa06f21afc170019U, 0xee0df5de46fdf735U, 0xe5f1e6d727cdf539U, 0x7fb181100114d02U,
  0x1807d7fc041df1f6U, 0x71ff9e617001a26U, 0xe40c04e007f802f6U, 0x17f00f05fcfff8f0U,
  0x2f509ffec0201eaU, 0xee1e322b200d6e6U, 0x1022d3f4d7ef08e4U, 0x3a26102d0028b52fU,
  0xd7d8eebbd5dae5f5U, 0xf3e9c529ced2d1caU, 0x1eff014e5f4d3e9U, 0x7e5e5e4f7e8c2e9U,
  0xcf3617c906e20f03U, 0x274eeb1aa0d2143cU, 0xf59efae8ae42e1bcU, 0xbfd6f1a9d2b281ecU,
  0xdf16211f0f1819U, 0xdf22052cde39022aU, 0x51fe4decf0315ccU, 0x461b06151a29b0feU,
  0x34eef6b91b14ffebU, 0xf7dbf417baf0f2ddU, 0xe22d03eed8f707e8U, 0x13f5d7113629d611U,
  0xeb0d38eaf9d4e4f8U, 0xfc49f20fe8ce285eU, 0xf2f300130232e1ddU, 0xdce3cbcfdeeeedf7U,
  0xe4161dfb15cfe820U, 0xfd2817cdfe1a0f58U, 0xdfb16bef0eee3f6U, 0xfe150c26d923e5e3U,
  0x14da0ad1fb050700U, 0xf0f8fee9cc190ac6U, 0x1d15f8aec7c519c4U, 0x1315f725fa0ddffdU,
  0x61528db041cecf0U, 0x33fb1801befc02cfU, 0x1b120efee6f61aa9U, 0x11ecd2f0100cd2f5U,
  0xfbfac8dacb0beff5U, 0x1507e69ebfe205e9U, 0xece907d2ca2b10b2U, 0xd3eed9dbf6dbeed0U,
  0x70804eef70402f4U, 0xb1f0404d90d1d01U, 0xf3f01acef8200affU, 0xe5ebf1fe1401b50eU,
  0xe3f2160708eb1d0eU, 0xded00c1f05f8f8dfU, 0x13ff051f14eae115U, 0x2310f5fed41dfafaU,
  0xf1bf2eaf915f5fdU, 0xeeef9d281e7efbdU, 0xdce20dba74b0ed4U, 0xd0e408e42d078d0cU,
  0xf0090e0713e51d18U, 0xf8d3f225110105e7U, 0xe0bf83031d8d711U, 0x9f302f0e50fc31aU,
  0xf5f0e4fb0a09e2e8U, 0xb00cfe130507fb1fU, 0xf31be013fbfefc00U, 0x1af6fb110afcebe4U,
  0xc12a13d6fed30cf7U, 0x13db190dc5fa17c6U, 0x15edfb24e813ce0eU, 0x23f0f8f4d0faa41aU,
  0xcbf31c0bece71307U, 0xd8d3f2180e0ed907U, 0xf309d3280ccbda07U, 0x1b070e12dcf5defcU,
  0x6f1da05d8fdc9e6U, 0xe422efdb32fd1754U, 0xf4e3ebdf1011dd15U, 0xc9ed00f505eb0edaU,
  0x11e5c9edda2ed3b1U, 0xceec609efe7da29U, 0xad28fc1ff2070208U, 0xcaba13fd21f3aeU,
  0xfe1fe2c90c35fdd3U, 0x16fc16d3fa1401d0U, 0xbed11acfc6917e0U, 0xe7f5e3131904ca02U,
  0xd2f5ddf615f31a1fU, 0x1af91bd9e82007c2U, 0x20323d2d63fdf13U, 0xf7f5f41fe72edf2cU,
  0x23f403d6fa350504U, 0x37b509cbadf4eeb3U, 0xb1ff3b58e383ae4U, 0xdf0adb361716a9fdU,
  0xbd3511dee7e7f318U, 0xf297fcf7e0e91981U, 0xaf527321cfae125U, 0xdcf22ac9cbeada35U,
  0xcdd3eceb03c509fcU, 0xcafcf30631f407b9U, 0x1725142740bcb522U, 0xa0513e5b3e0fb09U,
  0xc4dd2405ffd80f16U, 0xbcdcef1f17f513d7U, 0x24eb19ff37acb647U, 0x221427fdb8e6c809U,
  0xc5dcdb00f11ceaecU, 0xc2e2e307ff03e5c0U, 0x23ce3fff8ef10fbU, 0xf6091020ddf1b5deU,
  0x8e5f6df0705f519U, 0xeb19e5fafbec0ef8U, 0x81bd8b6f6ca17f7U, 0x11d7ff161c0bde01U,
  0xd0c7eb18f8f2c60aU, 0x93df7001ff3f74bU, 0xd301fbf421f308fdU, 0xfcee05dbf60413e0U,
  0xff0ffdd51efbe304U, 0xe71cebd9e10e2a2bU, 0x1a311381c103edceU, 0x300d07f3f6fec6fdU,
  0x4dd25e8252b29f3U, 0xee3eaf0cef411fdU, 0x1b232c06c106fcfcU, 0x32ff06261d2aad13U,
  0x1114b0ccf0eec4d8U, 0x1f02e78abbd32ff5U, 0x5cfeca3ec190ddaU, 0xab08ec0004d197e5U,
  0xc00612adf7f306f6U, 0xebf3ffd79ef217bbU, 0xdefbd497f4f19aU, 0x41dedf7d7e18ddeU,
  0xe2fe01cdfedce707U, 0x120bf7dda81b0aebU, 0x24f304bfacd407b1U, 0x1f34fcf6ce1c9addU,
  0x1809fae50f340df5U, 0x4debefc1e0f61ad4U, 0xf6eb1dc7ec3d12f8U, 0xd80135d71ae7841bU,
  0xac031620e6af261bU, 0xdef01018d014d7d0U, 0x6c8f10306d2af07U, 0xc8f33a08eed5c03fU,
  0x8e0dec3f1e891502U, 0xe3231dda2d061356U, 0x29d727f03c0ab114U, 0xbec3ce2e9e3e013U,
  0xd9fd2106f3e0fc05U, 0xfe14f8c3e8fa1042U, 0x1e0de7bfc5f4f1deU, 0x2211f1edce15f4dcU,
  0xf52b19dd1bf20405U, 0xe2f72012f5f00614U, 0x32011abcc10bebecU, 0x13071dfd08edf511U,
  0x11ff0f3727510317U, 0x5ca21c8cf10f7e6U, 0x18301cb0f1312808U, 0x11c11232103f21aU,
  0xd0f0b537ffc8bd25U, 0xb23d0fbf300f3374U, 0xf7f7cbab0acad03aU, 0xedde20f896df4102U,
  0xf50712fd2c2afc14U, 0xd42119bf2649253dU, 0xf01405e11dc31a20U, 0xc20054a1e553d01U,
  0x50aca4cd2b8f72bU, 0x1014fdaf4b01191bU, 0x1ce601bb5ba4f165U, 0xd7ef28f2edf45f24U,
  0x4dae9cecba359fc0U, 0xc3f3b0b7f4d8dd20U, 0x93f5d4aee8b60ac1U, 0xd6c29cf531d52b95U,
  0x2bc9bf09e91f9dfdU, 0xcc1ab9904fc5e02cU, 0xa60fcd9706aee70eU, 0xd0c0d8e81edd5bbdU,
  0x329ddf12a770c9e3U, 0xbde99dd75f9cbcecU, 0xe1dde8db4cb53556U, 0xa6baf0c434ab7fe0U,
  0x5ac7fb011b520fe8U, 0x5dfebeb1400cfbbU, 0xec1d00afecd046feU, 0x181df21049203be7U,
  0x2cb6fae9f73be7e2U, 0x3f5defe06fcdc16U, 0xdc12f9dbf3a42d0eU, 0x6e2eff4330d30e2U,
  0x2c9fdf4c901ccc6U, 0xfc12d6ef0addda23U, 0xbdeedae10bd6d8f1U, 0xd9afded3f8c415bcU,
  0xdff4fa0822e5071fU, 0xe82612d3221c1117U, 0xf1e709c5fbf60deaU, 0x325261ed6fdf911U,
  0x150c04f3280f1c0dU, 0xe7200ff5de2a0844U, 0xf713f3d1c1ef2bbfU, 0x201ae32b0717f3dbU,
  0x2ddef2d0f610f4bcU, 0xf205d70aa808e11dU, 0xf2f5eae5b4b50081U, 0x2f03b5fc17200fdeU,
  0xe5f916f507f61211U, 0x5fff925f4fcfd09U, 0x4f901000b00f50cU, 0xfafc19dd0207da32U,
  0xd02824ee1ee7fd02U, 0x734fd0c040e1c1bU, 0xd1b2e0fff27e7d4U, 0x1a15f50bccf9e9fbU,
  0xf7cf0cd51dfe17e5U, 0xeefd0c0db302f30eU, 0xd2b0500a1f814acU, 0x311bf2280219cdd5U,
  0xfaf9dfedfe1406faU, 0xf7da05dccee703edU, 0xfb0309c1051c19e9U, 0xdcf8e40219fe06f7U,
  0xe241ee804142709U, 0x20e9edef17cb0bf8U, 0xee137d6050a072cU, 0xe9dc140023113022U,
  0xa5ecf916dce6e01cU, 0xb614e9d840ec1627U, 0xdf60cd84fd5ad17U, 0x9fd1ce8d9cf0d14U,
  0xb90a19fec4c3d9fdU, 0x11cf50a11cf0509U, 0xdedcfa06f527c023U, 0xd7cdf1b3e5b30919U,
  0xf00833e1fc0208e6U, 0xd70bfbf3f1f3f8ffU, 0xde3612e409240903U, 0x2d0409161002f100U,
  0x3d1debbafb3517e5U, 0xfef4dde2e5fa07f3U, 0xf60b29b0d32919d1U, 0x7e5ccf03be6e1fcU,
  0xef06e8f6e6eeb7ccU, 0xd913c801fdc5ea2aU, 0xebdcfe03ee0bfefeU, 0xf0d2c7f4eeff0be2U,
  0xfcf0cee7e10bc8ecU, 0xe907f981f50b0a09U, 0xf8e9029006f30408U, 0xee08fdfef6ef1feaU,
  0xec2530f20cf40ff0U, 0xcf20b17f40505e0U, 0xf0f0ff08f50112e9U, 0x23eaf3012709dcffU,
  0xa6faf018ccbdfc1bU, 0xb01bebe20a1704fcU, 0xf3e3e5d712c49b05U, 0xb4fffcc3a8c324e7U,
  0xc7fa0334f2da121bU, 0x624eddd2a21043fU, 0xf2ca0fcd100fe954U, 0xf20022eecd0f210eU,
  0xc8e00727c1e4f903U, 0xbc0fe00a3db5f911U, 0xfd97f9fb47cab36dU, 0xc1ff2e9da5c34549U,
  0xd9c381b8d6dd9abbU, 0xe9bfc5b0f39bdbe7U, 0x8ebeebb0f1ebe2c7U, 0x96d0ceaff7a811a2U,
  0x1cd4e908bf16ceddU, 0xfae7d2dc13dceee7U, 0xd0d5decf31eb1c29U, 0xd4ede6de07eb15f3U,
  0x3ad299b6e028b3aeU, 0x4d4da90f5f5cfb1U, 0xeaf402c605f73292U, 0xc1e6c4f83af7cfc1U,
  0x16f1d4e40721dcdeU, 0x26ecd6b3e0d2dbcaU, 0xc20503dbd0240326U, 0xeee701f52703ddfeU,
  0x19ebd5f4112bea1cU, 0x15d8ead808f8031cU, 0x529ebc606f20413U, 0xf808f3f114f6bb12U,
  0x1b09f736010ce42aU, 0x272b21e84d160d39U, 0xe90cf09111fe1a37U, 0x131622eb26020420U,
  0xcf1cbe5e718ece0U, 0x11f3d8d2f1f8f2e4U, 0xde05f0f0dad508ddU, 0xfcf6ed1223f123e5U,
  0x13e8e6baf40de0cfU, 0xf8dff9dfd1dfe9e4U, 0xdbe3f6f8d8e0f5d8U, 0xcfe0bbfd0bf103c4U,
  0xbfdd6d30511f503U, 0x16e8faafa7f9f9c6U, 0xf8daeddabe0d2081U, 0xc6faf8fb19dee2ebU,
  0xdfcedeece3f8f9e0U, 0xe5f9efd3fde3f5f4U, 0xe8d5ec05ffdfe709U, 0xfbe315dceddb05f1U,
  0x1e01c8d000f8e9edU, 0x26fcedbfe4f10bceU, 0xe7e60312fa1806a6U, 0xc907e2eafafeebdcU,
  0xfb22de000b062824U, 0x35e71de1c3150fb6U, 0x20f915d2d543221eU, 0xe71117070cf1c52fU,
  0xeb00d9f1ebf9cee5U, 0x15100303eaf9f3dbU, 0xcdf808360c3e19daU, 0xf2e7efdf0de828ddU,
  0x161e19d01422161cU, 0x26070beba00c1ea9U, 0x2b0727e7ad4528c9U, 0xe21c09f12ee8be0eU,
  0xb80e27f601cd2afcU, 0xf4c00128edf10b99U, 0x1416f94b1de8b010U, 0x3908f8f2ba07c813U,
  0xce1f08b113de0cf8U, 0x2f1e10d793f421f2U, 0xf600f6fd8c21048dU, 0xf715f6e8cf0183ecU,
  0xb3323b0a00d42817U, 0x9e91d31ccfb0cb6U, 0xcfeef20e51bd720U, 0x110902fdccf2812cU,
  0xa0d9fd3af49219f6U, 0xe61bee12100af411U, 0x28e4e4f416e0bf3eU, 0xd8e9f4cbb7c7111fU,
  0xb412d80ff7b3f9ebU, 0x12171ab2d909f826U, 0xd2f7d507ebd5bcU, 0xef04e8efb2eab6fcU,
  0xe3e61fe4261804fbU, 0xf8f11b1da71e01ddU, 0xfe29f913d6e909c4U, 0x17ee0f00d90a871dU,
  0xace0df4f91a1403U, 0xed08dd15e8efd314U, 0xe9e9ea1600f805cdU, 0xdd90febec05faf9U,
  0xb511d10d04cafceaU, 0xeafa02bde60afe1bU, 0xfaeef1ccdfd9b8b4U, 0xf500f8e29cddfddfU,
  0xfc0f1e140d0b11U, 0xd91c2309d3381d57U, 0xa2b05b2e2e70804U, 0x230e122fe414f2feU,
  0x2a1d0f0d072a04dfU, 0xb010510e71a0915U, 0xf80ff5e2eadf2cfcU, 0x221ff6301a03da14U,
  0xd40af928e2f5f713U, 0x118e6fe1be11741U, 0xfec907f341d1d42bU, 0xf4e819ece1d81cfeU,
  0x9d181029dbaf1e2eU, 0xe818fffb39fa2428U, 0x18d301192717d940U, 0xfb0701e5cbf93a20U,
  0x9f122ffec681251cU, 0xcdea0a143cc8fd07U, 0xfd3fc253ebb9021U, 0x6d8ffb7a3bd0914U,
  0xdd2c4c5eb2aeab3U, 0xe4d9fae80af8eb1fU, 0xcb1bfdf40ac407f7U, 0xeafbf6f914fd2bd7U,
  0xfb7d4d9ed1fb8d4U, 0xe513dbab33f1cf47U, 0xbdf201bf06f60ae4U, 0xbae5f4df10dc49dbU,
  0x5e4d7c3f103e3d3U, 0xcaa7e4d011d5b0b4U, 0xc4f8dbdbc4bce3c1U, 0xac4cbc3e2fcf2b4U,
  0x2715f8eb16491d31U, 0x1dea24faf3ff04cbU, 0xc021aade93831fcU, 0xfd1328103e16ad23U,
  0x16e3eedf052bf218U, 0x190000ca0210f7e0U, 0xfef4f7dedadc18f1U, 0xee101c1b131dd8e4U,
  0x5f1e7d60a18f115U, 0xf9b18c6d10fd7c2U, 0xfd020fd4b9e2f2e5U, 0x250c111f2201e4e2U,
  0x1efc0213051d151fU, 0xee0cea083a12ea24U, 0xf3e706d92cd4110eU, 0xd6f51dfe310a37f6U,
  0xfdf7e52d1ae8e714U, 0xfb25f7c3240d1419U, 0x10d920cc0bc2da26U, 0xe61c07f8ebf635f3U,
  0xf1daf804250f0300U, 0xb030fe40b2ef31eU, 0xfdfaf2dc04d824e2U, 0xe140f1e000a11d5U,
  0xd4defce8eec6ebe0U, 0xc5d0e2e107e4edd3U, 0xebf105f6dcbfe1dcU, 0xececede8e5de07eeU,
  0xc5ebeff3d1aedbfbU, 0xec09edcc08f70914U, 0xeee3f5e90ee4b3e3U, 0xe9cd01e8a3f7f4daU,
  0xbfe81fdd10af00f8U, 0xde2aedcaf0eb041aU, 0x16e2f8c906fbbed6U, 0x9f7e1f39bdfead7U,
  0xe9cee0d9d3d0eff7U, 0xcfdae3d1e3e0ddbbU, 0xdcd6e6fedabeb1e8U, 0xccf1dec8c6c7fbebU,
  0xdcf0ea05ddd7dce6U, 0xcff5d6cafbcff7feU, 0xceffede60bc3ce0cU, 0xe4f0f5cae2e90be5U,
  0x81120a25009fdf0cU, 0xe7120de41818114bU, 0xeafb03e404fda11eU, 0xf0f918e087fb1d0fU,
  0x24cef201f600f7e6U, 0xede5e8e4ed09e8e5U, 0xd30d02dcf2e60fd5U, 0xe00aec0125f2f4ebU,
  0x12d4ffc8f20ddcf8U, 0xf2cde4f9e4fde1e1U, 0xe7de09eadbc9fbd5U, 0xf5f1d2fafedf04dfU,
  0xf0fed9d7d907d1e6U, 0xf2eee5e7e9d6dadfU, 0xffd6f8e0ca0c13c3U, 0xdaffedf212fd0af2U,
  0xea080d0206d404fcU, 0xcfd8fee2e3fffeedU, 0xe6e5f0e2c8c9d7e4U, 0xdafd00d8daf6f7efU,
  0xf7f7e9f8eddcd2feU, 0xd9fde5e2fa14dbU, 0xe6dcf9d5e3d9e6d4U, 0xcf00e2d8d8d201f5U,
  0x21fad2f21c16e0edU, 0x16f20fcbca251ad0U, 0xfaf5f1e3c6352cfdU, 0xe6060a170d14c6f7U,
  0x2af200e6051ce0dfU, 0x14f8f703faf2f0eaU, 0xfd14ef1f010d24f3U, 0x15e3fcfa1ef100ebU,
  0x2603c3d60a30030cU, 0x14d216c9c323e281U, 0x17f211c6d43d20c4U, 0xe90ef51912efe5fdU,
  0x140a18fa121b272dU, 0x1bf1b19ef14eea3U, 0x27d2eac7fc19ef2dU, 0xe61d010cfefcc33cU,
  0xdd41202102d17eeU, 0xe60025040739fda6U, 0x82fe1b8f1d026ceU, 0x4318f831fe11b1cdU,
  0x55daf2c3f348fbd5U, 0x29a3fcfaaa0e018eU, 0xe41cf181c0dd42deU, 0x29fed70c1f0cd208U,
  0x8e912f5ec24f6dcU, 0x12fee3e804def609U, 0xdf0604c904f90e31U, 0xfd2e2d8290ce102U,
  0xd2e5ecf715c61319U, 0xd1efffed0a0ce617U, 0x15d91a95ff07d5c3U, 0xdde7f007cde8d5fbU,
  0xf2f8fae81802e4fdU, 0xfd2905d0ea18053cU, 0xd1213a2d9ef05f0U, 0x2624fff50819e0daU,
  0x12e506ca1712fde0U, 0xe5e306e9ea17eb05U, 0x5fefcd0b7dc12bdU, 0x38f103061c15ccf2U,
  0xe71d41f512d3381fU, 0x3be080af302fde9U, 0x2d1e1715f6f3ce08U, 0x1f1a1901ec1abe33U,
  0xca02f5eafbc509f3U, 0xf11dffcb0511f901U, 0x4f803bd06e7c2faU, 0x217f9ebdbe312edU,
  0xec1816eb26ee2106U, 0xf2201d03f1330a1dU, 0x15140df6eaf50dcfU, 0x3b1c04321229c7fcU,
  0xcaf31f06dedabcfeU, 0xee11020518e70e4cU, 0xdc100722e514d5e9U, 0xfcd9f6dda9dc0ac4U,
  0xdc2c16db17040f17U, 0x291ffd23d5fa1a2dU, 0x16f717bbc73e0ec4U, 0x33fae714e7f6a50bU,
  0xf1ef12daff13fb1bU, 0xedc7f24dcbdce5f3U, 0xe0b11fd1ae9f038U, 0x9deec16ecf80724U,
  0xddd9b7ffd4e995deU, 0xb705ec99eedff435U, 0xbadefcbcf6dcbeeaU, 0xbfbecfdfc3e0f8b5U,
  0xcd101d2011e4eff2U, 0x64ff2db04fe0c73U, 0xf207f1d81202d3f6U, 0x2afaea26b8f2fba8U,
  0x28f203da18310ef7U, 0xe9f0f700c3110915U, 0xeb4a0ede81d83ba7U, 0x4816f02e1c2ac0efU,
  0x33daf1cf23230bf3U, 0xfaa6dcdbd81ad4b6U, 0x2cf8c7f9bc35ebU, 0x6ecd435273cebedU,
  0xf308b31bf2f8bce2U, 0xfc13dcba1fcd0754U, 0xfcf5d0c219faef0dU, 0xcaf4eedbe8c43fd2U,
  0x1f25ff0e3005f413U, 0xe42f1ccd15461f22U, 0xe6310cabd4f10cf1U, 0x1f141d1d1039f6e5U,
  0x21ec1fb63a4515fbU, 0xd6faff02e519050cU, 0x1b5f05aa98d546b9U, 0x64ece61cfd260307U,
  0x22ed02a7f61ad2a8U, 0x1dd3cad0dfffe922U, 0x62d09f5c9d9eedeU, 0xfc09b8df141517c7U,
  0x2cf5d5a8143007ddU, 0x27d31f9f9b24e2bcU, 0xfee432e8b75037b9U, 0xd81dc8004af1e8e6U,
  0xbce6d4462292f92cU, 0xa95004f143191430U, 0xf2c027ba32a12140U, 0x2a03fc48b5303e16U,
  0xe712f0310bc901e8U, 0xfc0402e73f1bee08U, 0x5eef9c211b7022dU, 0xee1ef703c116f8e3U,
  0xa32a1e24d5833e2dU, 0xe321071336c4fb19U, 0x29f0afe42d19062U, 0xc9fd0ed894d3084bU,
  0xfb5c9e4bf1604acU, 0xdd3fa6f21cc0ff18U, 0xe5f2eace1ef910deU, 0xfaa7e9cafff51bc3U,
  0xfa0bfbe9cbf2e3d6U, 0xec16bfc145d8fc0bU, 0xe8e000e2215001deU, 0xe1b2d8cf22e509e1U,
  0xe8c316abadd9e1d0U, 0x24c0ac2912d5c181U, 0xe1b11e29fc29e0e8U, 0xf8b1df98eed1fee7U,
  0xfee2ef05f7faede9U, 0x5e7d1031be4ccedU, 0xdef80e19261d1a26U, 0xe0f9edec1cff120eU,
  0x1522d60415fadfffU, 0x25051ba7160a100bU, 0x13fa27c91e1c10fbU, 0xe5fbf1fd08f908f9U,
  0xdfdefeb280bfc1dU, 0x1fdf07b6d9020be3U, 0x18f90caae8101cbfU, 0xf71b0a120509dd09U,
  0xff1deff1f2e9efffU, 0x20716d2c4f600ecU, 0x1dd02eeb311fcb7U, 0xe7f4d900effcace8U,
  0xf31debfd19e6110dU, 0x1bf108e1d61808f5U, 0x10f9fff6c4fcf6d2U, 0xf3f8f4f3ede7bf0bU,
  0xc4f709e9fdcb2200U, 0xe4f41ec4c31b09e0U, 0x21e404e1dcddecf2U, 0xf61707ecb0f5cb15U,
  0xe00514faeadffc09U, 0xebfb00cff7f60727U, 0xf8200ae9f6e5d0ebU, 0xea0211dbd3f41c0dU,
  0xb4f8f62102bcf100U, 0xd70dedfc11e10537U, 0x607fef416c7a01fU, 0xf4f41be081e6280eU,
  0xcb0cf010d8d9170cU, 0xc70ffbf735f8070aU, 0xbf912f13401d331U, 0x60a22d6dfd04818U,
  0xf0c10fe9f3d1f005U, 0xae010022f8ec0404U, 0x917e0f706a9e9d8U, 0x14e70cf2bfeeb3deU,
  0xbbbf9e5f41e0a06U, 0xd3f6df15c9f9bcd8U, 0xff2ef10ff8ce10caU, 0x1af90a0106e604deU,
  0x51c1d2e9e952e8b2U, 0x2cdac7edd9f3e2eaU, 0xf2411932e1020cbdU, 0xffcee209181417c0U,
  0xef0d705f022fedfU, 0xfcf516cfe428ec14U, 0x20adde5ddcceefeU, 0x6fbe60df10a0ac7U,
  0x3f27dbefea080c16U, 0x262d03fd0e041831U, 0xe7fbf5aee6db38e4U, 0xb1aea331605ef1aU,
  0x2bfacbfeea35ff18U, 0x3eceeae80adb03d8U, 0xffe200db31f42c12U, 0xd60c0f03350cf0efU,
  0xd5ffbaf4b9e8e2e7U, 0x8f1cbfcaeed1e61cU, 0xc6e9f6b312a9d014U, 0xb3f2eae9c7dd25c6U,
  0x8101f810b38cf300U, 0xb500d2f411e5211eU, 0xcb7bcdd2cc7a036U, 0xe8daecbf8de23610U,
  0x8decc61cb7900cf1U, 0xa2e0ebf516e710f8U, 0xfb9bdff60ebf8429U, 0xcdcb10978fbc3203U,
  0xc1391ae71fcc1b06U, 0xea053be3ea11d5U, 0xa0b0c0ffc0d050eU, 0xb01e90ff7258128U,
  0xbe1af20ffddcde03U, 0xd634d40800e50cf9U, 0xdb0c04d417f1ef22U, 0x1de90e12b00bc909U,
  0xcd1813d90f00fdfdU, 0xc01ed525eb081ef6U, 0x50911ddf00bdeb5U, 0x1903d315bd17ced1U,
  0x29061b0d1a33e5ffU, 0xff0106052216f43bU, 0xe23f19dcdaf71a10U, 0x2efb0d202cfeeb08U,
  0x1507f5dee933dbdfU, 0x180b04e911fbf506U, 0xeb0413b5f10d2108U, 0xf4190f1c2f04b6daU,
  0xf0f33f7ecf608dfU, 0xf8f0100c18090db8U, 0xce00f08ff100527U, 0xf4eada05fe1fbfe4U,
  0x30e40020ec2803fbU, 0xebf1f6c84426f92aU, 0xe72bfcc53cf11c33U, 0xff1b200f19194205U,
  0x1001ee0cea0beddbU, 0x1cdaffe13ce9f8d9U, 0xdcc9f9f81cc1fa22U, 0xd603e8e3f0ea0e0bU,
  0xc4dcf6ddeee3dfe5U, 0xcabfede215f0d6c7U, 0x2d6fa020ef4cc1dU, 0x2f6e4c7c9d8deecU,
  0xb5aeecdddac2d2e8U, 0xbcfec73629f7d6c7U, 0xe1e2fa0916e6f520U, 0xe8e004d7eff1dacdU,
  0x4f9abc61b230014U, 0xfbe605c2ca0af3a3U, 0xfe19fd81ca4723e7U, 0xc0e706fe39e8a80fU,
  0xf17283c0828213cU, 0x33e5eef80cee1a0dU, 0x21013bba2d290a59U, 0xe100519271718U,
  0x28fbccefe010fce6U, 0x16f9e1e4b8d9ecd3U, 0xe8d50100c637072bU, 0xbce6ebd110fab027U,
  0xfbfb2110fbec0714U, 0xf9dee93f29b9f9a4U, 0xfcbc3f413622e731U, 0xe4cd1dba1ac60f44U,
  0xd3c5ec350cd6d9d7U, 0x8e0aeaef4107f62fU, 0xd10e07f72211f43eU, 0x1b0ad4f6cad40ae4U,
  0x9bea31ebb7cef006U, 0x191ccd1128c634d6U, 0xffffb2e2402ca34U, 0x2dc9ecb8eaeec915U,
  0xe8f6ff12c536ccaeU, 0x2dca8ff11e3dfbaU, 0xc3eaf4260e32f2f2U, 0xcce1df0c1dc9e6e1U,
  0x42a5b4dbdd0e31U, 0x2b1406b0e50e11fcU, 0xebc111bbc8521ffdU, 0xad03e7f40edbccfeU,
  0x9e01030de5addcf1U, 0xd26faf00de6f920U, 0xcd1f80eef13b5e0U, 0xec0504b881d0f5d6U,
  0xcc010cdb13e21f10U, 0x2fa1114a601f9d0U, 0x22fb03168717d69fU, 0xcf90ef9a0ffbdfdU,
  0xa5f3fefdfaba1b19U, 0xe7f3100fc80809feU, 0x21eb0ffdd900d7ffU, 0x2181ce8a1f5f10cU,
  0xd81dd7e3f2cfe90dU, 0x93b0afbc8d50b1bU, 0x11d20b0ae920e2b8U, 0xf6e1d8fcc2ebcef0U,
  0xa8f0fae40dd916f2U, 0xa03f2f4c2fcfd00U, 0x1104fdf397f1eb97U, 0x71cf40eca07ccf1U,
  0xf7fff9f40ee11515U, 0xfaf5fc17a111f4f0U, 0x1c01ecf09a01fae0U, 0x2bf91bf9d3f9bd17U,
  0xae02c8f903aee3f2U, 0x721f9aa05f20433U, 0xf4ffe50ff212c2ccU, 0xe1eedb0d9ef3f3f3U,
  0xbd07e70d1ecc1cf7U, 0xd22b00fad2230214U, 0x2116ffd4d1def3fcU, 0x2170c17dd0afdf9U,
  0x7f4fb140924261cU, 0x7f02221ec27221fU, 0x1e14f600fcdd1716U, 0xff33031f0f12060aU,
  0xe002cc5f20c0cfdU, 0x4bcef5ad217d5c4U, 0xf61c022e0ffbe7dfU, 0xe01ea00e92da324U,
  0xff18f9e121d0d2d6U, 0x2f611f4af120e1eU, 0xfdf7fce3d8f8f9a7U, 0xe904d512031bc1d2U,
  0xb22205fbe6a9f6e8U, 0xca0f0df1aae4f749U, 0xd9f70d00bbeaa6ccU, 0x1dffffffbb1cbee1U,
  0xb00c00f0eabf10d5U, 0xedce002397edf6bcU, 0x6e00c32bccbf9afU, 0x11e9f0ef9a12c5dfU,
  0xe8e8f2cbf1f7cdeaU, 0x9dcf4e4b9e3f61eU, 0xe4fc03e9c5f1f8d3U, 0xdb00ddf8f608dcedU,
  0x271e18aaf716f6d7U, 0xff407279c1fd7d1U, 0xf8111be1ce28fcd3U, 0x3119d826031481dcU,
  0x2e1bfbef2442fe27U, 0xf9d08edba0104a2U, 0x70309d6b5154515U, 0x19f939213de7bd0bU,
  0x1b060c0df2342e2bU, 0x292ef1c21f5eca3U, 0xae3f3da430c2347U, 0xfc1c08f63ae3bb40U,
  0xf2180aede323050aU, 0xdbe9f704350ce61bU, 0xc0bd9ea44f2eb22U, 0x172d111b2314e600U,
  0xfb12e30fddc8010dU, 0xf0fe15ed04f7f713U, 0xf3d5f5fc14e2df08U, 0xefe7fcd5e2dbff15U,
  0xe0feddf329ea0a08U, 0xbb2c13d92a00ef28U, 0x400f098fbf1e1efU, 0xe0ff0aebe6d702e3U,
  0xf4e927d02c0e0117U, 0xde070a1cc201e5e5U, 0x1031efbab4f3fea2U, 0x2ffeed071c2bd5e9U,
  0x59da18f1f1341801U, 0x14e9dc330de2dd0eU, 0xe72cef3610b00d13U, 0x11ecfd01301b230eU,
  0xa712bf10c2a9b6ebU, 0x1920e9e600de051dU, 0x1c6dad70fe1a8e8U, 0xc7e5f4caafa414c7U,
  0xe51947dd12102103U, 0xf43305070b3f2e5bU, 0x1c4120f0ce331fbcU, 0x352e10270a13c4e5U,
  0xdd524f51ff32f10U, 0x6cb0f5bfe1cd7f5U, 0xd06c043edb215cdU, 0x34071d130614d623U,
  0xe0e6e1c2cff5c2ceU, 0xf2eded2a0e6f705U, 0xdef4edf5dafe0681U, 0xdf0dd0dbe1e8c2c6U,
  0xd925110f07e20602U, 0x20532308d216133dU, 0x271e1700d434fcd0U, 0x36f5073ac41dd312U,
  0x21c4a6cfc54295afU, 0xf2d4b981cda5d000U, 0xbadbf3bec4fe14beU, 0xbf9cd6b32cdeeeacU,
  0xf2e5a8f4d0e5c6feU, 0xca1de7bbf6d4f02cU, 0xb1ebf9cbdfdfde04U, 0xcbe8e5bddbd9fbcaU,
  0xc556dd46d2b20c15U, 0xe5371de344da2e63U, 0x5b107d71adeb16dU, 0xcdfb2ab599bd3d1bU,
  0x2b20e3c41e1eeafbU, 0x2cc418bec303d1c9U, 0xfced0ab7b82b37c0U, 0x190ecf02390aebf2U,
  0x2ac4e0dc1635d0e4U, 0x8c9fabfe821d31eU, 0xe621fecbeaeb28ddU, 0x160fe61d391856c7U,
  0x2deaecd8f51ddeb0U, 0xe8f508d131f6da3dU, 0xd61904ccfcbd20bfU, 0x15f7d6f0050755d6U,
  0x53300fc280c0b28U, 0x7fc2b101115fff6U, 0x1b26061d06e013f3U, 0x2e111a100f03f31cU,
  0x118fc19f824091cU, 0x14321cbc0af50532U, 0x2507eaaefa0817dfU, 0xd190c1c0c2014e8U,
  0xf01f4ec24031cebU, 0xf20e07f2d8280901U, 0xc0bfcc3c2e525e4U, 0xf1808220319cdfeU,
  0xf90e10ef0d0b03ebU, 0x220b2007af1009e1U, 0x21071338d92221d1U, 0xfd0001fd0e0cb508U,
  0xf4e71d02190707f7U, 0xeaf7fd1fce0ced14U, 0xf3030702c8f8eecbU, 0xd0b0bee04fdfef7U,
  0x2bbf2e2ece3eaefU, 0xbad8d82ef5f7e7e0U, 0xf9f9ec2eff9cdff3U, 0xf0ebf60ce5e4fcf9U,
  0xf11d03001ce00a1eU, 0xd1e241ecc091bf3U, 0x27fe043de43605ddU, 0xa090e031022a308U,
  0x9e80adb0ff517f3U, 0xd1da0426bf02feceU, 0xf05fd2df0ea04e0U, 0x1f10f615ee2bd108U,
  0xf0b7e4efe2efdcd5U, 0xe1d7e711dbdbcd1cU, 0xe6ffd937fff6fae7U, 0xffeae0f60fe803d6U,
  0xc82618dc1fcb2104U, 0x7210d1cc50209e6U, 0x1dff0027c53fe4d5U, 0x1a11f51ae2f88109U,
  0xd7f934e612f30e00U, 0xd5bff421d522e4beU, 0x150e021deaf2dfedU, 0x1e010b1aec1bb120U,
  0x7f2d0f8e303eeeaU, 0xfa05ec2100e9ed2fU, 0xdce9ec11070efdf3U, 0xe3e7f7f9fdeafef6U,
  0xda0822062402341fU, 0xd0d914deee24fe05U, 0x3604f40905ebf9f4U, 0x161d071cf912df0bU,
  0x70037ee14002113U, 0xeaff0e28af0cf30aU, 0xfe1216b89e04f19fU, 0x3312ed10dcfaa3f8U,
  0xe9e81af6fcfa19e6U, 0xfaf9eb59fef10e37U, 0xf40312c503ecff2eU, 0x29e81305fbd7fb11U,
  0xa7eee91ccebbff16U, 0xb927ebe93fdeed44U, 0xe8c2f9f026e09d01U, 0xf8ebf5cbacbb030bU,
  0xcbee1f1429ef0c12U, 0xdb61f7d3ef25155eU, 0x1efc1d81e7c3ccbeU, 0xd20ed13a5fd1dc5U,
  0x38eb1ec70940f2f8U, 0xd5e3e5efd01ae733U, 0xfb28239a869532acU, 0x3a0d00290b4612dbU,
  0x504ad07c9e3d4f8U, 0x10f7d2be17c0f117U, 0xe5e2da2a0bf1cd09U, 0xabe0f3c6efc5e5f7U,
  0xd210ec0ef1e3cf10U, 0xe7311190252e124aU, 0xfbf310c00e00c317U, 0xec2302e0a5122cdfU,
  0x30280303291df51eU, 0xeb5339cd27431f58U, 0x142e1f94d6e854deU, 0xfd1d25561b3901cfU,
  0xb7f8e1f3d8b7fc0bU, 0xf134e7e8b0f41615U, 0xfcac0bceba10e8ceU, 0xdce2dcd4bbdcb8dfU,
  0xc90241ee01ee1312U, 0xe9c7da5709f20c81U, 0xcef232c1d28e927U, 0xf30520ecf4019a39U,
  0xd0eff232f6c10afaU, 0xf53a18e524f10a15U, 0xe8df18ce4b0c0026U, 0xd01c19bbfee4f01bU,
  0xa3211a100ab7f5ffU, 0x1139efd8add70c28U, 0xbd61607ae58cac3U, 0xf2deffe8cfd5a1fcU,
  0x130834ebf42706fcU, 0xeebe0550f71adb94U, 0x193c2346040df2f9U, 0x48f5e42efe1fba23U,
  0xa07d214d223efdcU, 0x1b12fed2f2c4fa3fU, 0xd8e80cb22738fde1U, 0xdbecfac901e3f1fcU,
  0xb619290828bc0c00U, 0x244ded22b7e81059U, 0x91d34f1c831ded4U, 0x1811d6219e33adddU,
  0x1af62fea232d0310U, 0xc518e03acf2fec01U, 0xd1ae4d9ebbc20e5U, 0x529fb21f516b1f9U,
  0x210b0921d017f9f4U, 0xfd20efe520d7f73eU, 0xfdcef9c80a23065eU, 0xfbd01af02b02fc1aU,
  0x8e607f51a031d0bU, 0xd720e838cc29fd1aU, 0xf328ef07c6b01ba4U, 0x2908f329d714fe07U,
  0xdbc7e0cfd5d4dff1U, 0xdf0fd402bcefeee6U, 0xf0e3e1f6cce1eeb0U, 0xe6d3faefe2e7d9e5U,
  0xe12a0cbbf1f40c17U, 0x24111de791fe0ef6U, 0xfbc11b088827e5d5U, 0xf1e2f6dde6e2b8faU,
  0xe1dd1cea02b623fbU, 0xcaeede23f3fff5f4U, 0x26070c3a0b8fd2f7U, 0xdef1a1be113e407U,
  0xfaf1ddd80216c3c9U, 0xfaf8fbc6dee4de1fU, 0xe007f506bd1b1ab7U, 0xc5f4e7e80af2e1e3U,
  0xa2c20e31a001313U, 0x419093cbced01f2U, 0xaf6261cbb300905U, 0x24edf700eaf0cd17U,
  0xe7c3dff4be04c7b8U, 0xddc31f08d9aed3U, 0xbce3e41c10e0dde8U, 0xd9ebf0d20fd80ed5U,
  0x1fdf2c1ea071808U, 0xff08e70bc4efefccU, 0xe6c7e2e9fe2706ffU, 0xddfb0cd4fdcdd909U,
  0xc52b45dc12d82610U, 0x14f80c35fdff0adeU, 0xfcea027f0428cb13U, 0x33f4f91bd5ffcd09U,
  0xfffff336fffff131U, 0xfffff3acffffe453U, 0xffffd557fffff814U, 0xffffe5f0ffffd22aU,
  0xfffffbc2ffffcbf9U, 0xffffe16ffffff5caU, 0xbf00000749U, 0x8f2ffffed04U,
  0x8b7fffffb87U, 0xffffd23afffff0f5U, 0xffffeba2ffffd8a1U, 0xfffff9c5ffffed2eU,
  0xffffd5c8fffff6ebU, 0xffffd5e4ffffed31U, 0xfffff524fffff673U, 0xffffffa9fffff2d0U,
  0xffffdef9fffff763U, 0xffffe160fffff496U, 0xffffeb5affffe187U, 0xffffdd46ffffd7eeU,
  0xfffff6e4ffffe56fU, 0xffffd6e1ffffd42dU, 0xffffe7e2000006f4U, 0xfffff9baffffeae4U,
  0xffffe201fffff941U, 0xfffffbbfffffde0dU, 0xffffde68fffffd41U, 0xffffd7feffffce1bU,
  0xffffd4c0000004c2U, 0xfffff8f0fffff1c8U, 0xfffff052000006a6U, 0xfffff635ffffd345U,
  0xff02190c040efe11U, 0x517de0f00090e0aU, 0x254738101ae514f5U, 0xc03f71924160e19U,
  0xfe10072025fb2106U, 0x4133c0c12011af4U, 0x1f04021103372d04U, 0x1bf7262d100e222dU,
  0xe8000408e502f5daU, 0x42ebcc02e2200a18U, 0x150c2508320015f0U, 0xf9f9f50714e8f3e0U,
  0x14f70ef11cf006e3U, 0x6e52bee132ae7edU, 0xda12150af21c07ecU, 0xff42180afa230e1eU,
  0x40de4f3de050f26U, 0x2324f5502613f40aU, 0x1b3306fc230a1dfcU, 0xf7fee00df9fe1800U,
  0xf816f4e1ffeef7f4U, 0xe6e50d05ecf5d50dU, 0xfb11151939dbccf4U, 0x2a37ce03f50a0034U,
  0x620e7f11d12de66U, 0xff1520011f181705U, 0x3639f9f323550a33U, 0x120aed17fe150b2bU,
  0x151e3ce6f50ce42bU, 0xe8f2f416e4f9eaffU, 0xe9081a1e05eb0014U, 0x3727d208df0107feU,
  0x231a1ce50c071137U, 0xfa51f32c2625f61cU, 0x4657fce9390a082bU, 0x1201f40a0dfc151dU,
  0x16132df405f61626U, 0xfc07fd2913f4ff35U, 0x15102ade1e19f419U, 0x805ec0fe90e100cU,
  0xeb04ccdbebee13c7U, 0x123f1152afa0edcU, 0x1f051afd0dd8f20eU, 0x11dc110b1539eff9U,
  0xfff225e0eee311c3U, 0x1ced16e2d124ef1eU, 0x32003816222702f2U, 0xe7071430d2f6ee1dU,
  0xfe3e4e8eb0d00c5U, 0xfb00ead212fee01dU, 0xfce2010ded14f113U, 0xedd601f8eefd00f5U,
  0xd8f5f413f5d8ea13U, 0x2eff8e9ff06ca1eU, 0x3fd1bf61812fdfbU, 0xef0f16e7020819feU,
  0x9f5f8e00407e1f1U, 0x200f41309022718U, 0xd7ef02fd02ff18cdU, 0x215d318f6fb0b01U,
  0x16f3defdf9e60812U, 0xcb1126022bf4b9f4U, 0x21e3fffff3d6ebU, 0x17e8d2effb000c14U,
  0x1901d4f21c0d0106U, 0xf82d27f224f6fff0U, 0x1fb101c1b2e0405U, 0xc0cc2d6ef2c0f05U,
  0xe17eaed16160bf7U, 0xd9321e0918d6d2f4U, 0xdf15f21004d7f3f4U, 0x12ffeffbffbe140fU,
  0x1c09b3cd07ece637U, 0xbb432cde2e128137U, 0x1a40022b2204e027U, 0x118c8b2fe2a210bU,
  0xd090ed915d7120fU, 0x181008fe01f5c623U, 0x1319112f26c3c718U, 0xe5f8cdf9c2c20ff3U,
  0x1ff2ec1edfdc1100U, 0x191719b70d16fa07U, 0x1f1b10030a29fb17U, 0x3072104d606e6eaU,
  0xf9f6181d1d0b0004U, 0x120ce2c028172b08U, 0xf90a0c24fa2316edU, 0xdc27f0db04f60cf1U,
  0x5f1ebffe7fae00fU, 0xf72e2ce81cfbe303U, 0xced8e9ea2104f2b9U, 0xd6e13dfbe40b09d7U,
  0xe0e7c818f9feeceeU, 0xfbf5edf1f809262fU, 0xfdfb0e1d14fc08ddU, 0x3ede6c20c02a7e4U,
  0x130505ef22fc0611U, 0x2023040d130b2df1U, 0x151700e904fe24eaU, 0x15f9ee1a09f6f21cU,
  0x63713ea07ea0dfdU, 0xf30a0927f3150f0bU, 0x2dfc033c1511090cU, 0x1ed40fe8d107e929U,
  0x31fec16dd1c0bbbU, 0xfffed001bfd06e3U, 0xfffd3423ea180022U, 0x6eaceff1a20c3fbU,
  0xee11120f08eb25cbU, 0x200f20e7d7fe0ef2U, 0x3c4e31f1be41eeeU, 0xe808101af9e6e205U,
  0xfbe7ab28f5e5ebdeU, 0xd80b17da13dec712U, 0xdaebf61cc9eae2f4U, 0xd7160fe6ff26b8cdU,
  0xdec2ca2ffef8f0f6U, 0x281aefc3fc111c1dU, 0xc9cbfdf3fcdd1006U, 0xdd0d13f50cebd3ddU,
  0x13fcca29dde5ef0bU, 0x72524d108fef7eeU, 0xbaffd9fae616fbffU, 0xc319ede613fb09e4U,
  0xf3d4e232211c0615U, 0xf22de4eb251626fdU, 0xddeea06fdec4ff1U, 0xf509f9dd43fd04d9U,
  0x25ede843f7f3f5d3U, 0xfd1743e226ebe3cfU, 0xe8efe5f0e4ebe6cdU, 0xdb0415f7f6eede05U,
  0xf6ceed28e9f8bf13U, 0xf837daa6211c1d04U, 0xebf801e3fbf019dfU, 0xe2c2d8fa45ead5e1U,
  0x1e8f4050917fa2cU, 0xfdf5050eeaff0ddeU, 0x3014f509ef0cec12U, 0x15e74e33080f06fcU,
  0xfef6e8eedeef150bU, 0xe42cdff91b152808U, 0x3ef1707d35802f7U, 0xffc709f22044dee8U,
  0xe5fc16ea2e21220dU, 0x26dae928f7e51d1bU, 0xedd10eece7f716edU, 0x9d9ef2d0701e7f9U,
  0xde1de171201fe06U, 0xf51334d8eff93a23U, 0xfb051aeaea1505f3U, 0xcfd241fe6210016U,
  0xb2edfb1ded010ed5U, 0xdb5a520dbc5fff5U, 0xddaf12e5e9d908e7U, 0x1f010e0b08cdec02U,
  0x1bb8e6251af3dfadU, 0xffd602e6f0c821ebU, 0xdd05f4c4dce81dfdU, 0x30c0709231917faU,
  0xd030119e209ffeeU, 0xe21a0bff2202fddcU, 0xf8cefceaf5e9f8b4U, 0xd50400fc061d09e8U,
  0xebe72a1910f40ffbU, 0xfce2d6d801e0f9efU, 0x2bed3506191b24daU, 0xc0223edf90af5d7U,
  0xfbfc1f3dfc031637U, 0xf50f06061cec18U, 0x3d1fe0e1f0101e6U, 0xfe2ffc03120942e4U,
  0xfce4d42e1e0d0632U, 0xf70a0af728e82916U, 0x207142110060c14U, 0xf9e010ff36f31604U,
  0x1b0a0f231205112eU, 0xf80614fe1217cf02U, 0x8f6e60b0916e511U, 0xe230f7c40607332cU,
  0x1204f02107250710U, 0xe4f6e72a1dff0e0eU, 0xb0df93223daee14U, 0xfdd8db1846d93003U,
  0x716440b280e0e00U, 0x5fa14e508fe1a00U, 0x250ee80e28e7f408U, 0x1cd6fd08f20c3e0fU,
  0x221a270000111615U, 0xe3e0f81e2802230fU, 0x325fbe9fcfa152eU, 0x180aef0bfaf90cedU,
  0x40f45ecf10df215U, 0x1407fe15f0df01fbU, 0x1e0ff909e320d326U, 0x15cff00ff3e42012U,
  0xf723121dc5fd04f1U, 0xe0e1e002e51926eeU, 0x17000af3f3ef0a0dU, 0x3b1fea16fdf107deU,
  0xfffc0200101a3a16U, 0x10205031d28f8e8U, 0xded115f200ebfcc0U, 0x200b2920071e1b11U,
  0x14fb0610111005edU, 0x41fd1a1101e8f135U, 0xfee7050d2d1af800U, 0x110a03edf11511f6U,
  0x317f10f080bf602U, 0xe21f0c2a423929e5U, 0x4a56feff18050314U, 0x36fd24191f49e9f7U,
  0xea1e3e20d4ff030cU, 0xd30a1903d2180338U, 0x330d1e0634140af0U, 0x7e2065302fdf631U,
  0xbf9ed020dfbfbe5U, 0x11ec10fb210b07f7U, 0x10de0605f110ea6dU, 0x5e123d9072bebf0U,
  0xfd113c14f0092cfaU, 0xe05ffde030df31cU, 0x4d5f7e3e8e20ce8U, 0xe9f61f4206f2dafcU,
  0x1dfcf40cfcfdfbacU, 0xd1eb190b06e90ffbU, 0xdcb6f4f6d8cfd9d0U, 0xdf5dac615f0ebdbU,
  0xdcccd0ffe3e400fcU, 0xf8f6e8f00eeb11fbU, 0xe9e0f7e7dedcf6ffU, 0xddf4001007d7e00aU,
  0xfc09fd0cfc01f3d5U, 0xf7ef53c9f8fef506U, 0xdec8ecfedb10f1e7U, 0xeb160405fb110bddU,
  0xa0a11ecfff626U, 0xfa0ff00429f10a21U, 0xe2ebf81de4ec0211U, 0xf3e2fa0311fe0df1U,
  0x1b0832331c05ff17U, 0xb27180bf318f934U, 0xdf32f232fc210adfU, 0x1224f304261a060bU,
  0x110012405c211c27U, 0x154914122bea1f03U, 0xe4290c23f70a0d18U, 0x16f826f841123607U,
  0xff092343041725fcU, 0x2634132df4001eeeU, 0x130913e30fff1023U, 0x150fdf233007f922U,
  0x15f8265f1a1efce4U, 0x10311afdfffa5a01U, 0xf90d0600f7fd14f7U, 0x6f11c413004e806U,
  0x130ebd280d1a0637U, 0x1f22151ceb0bf7d3U, 0x2f1111ee1b1ada2fU, 0x13fb04f9f614f61bU,
  0x1d133b1df5092214U, 0x3308100b1308fb12U, 0xffe0323b14da1916U, 0xe6121b1d053626efU,
  0xf6f5282106e4e206U, 0xe1efed1df90c2408U, 0x24e3ed140ed6def9U, 0xfc2b0d0a11000f03U,
  0x15033701170e0811U, 0x1cf1f20ef8fe1613U, 0x2f30403150a064cU, 0x1f290213010dfbfcU,
  0x8f94230fcf5d2feU, 0xfad8dfecfaed2824U, 0x1304dbf814f6d817U, 0x752010807eb5fedU,
  0xfc0703100e0a070bU, 0xe416f86727f60ef1U, 0xda02e7000bfe054cU, 0x1206f812350c47dbU,
  0x4f07f93c09e5ebd7U, 0xeb452e25472901dbU, 0x264fe3e6ff44e818U, 0x1b0e2add0334120eU,
  0x81207061a0b160cU, 0x94ec8e229eb0120U, 0x11faff0158ed0fe4U, 0xfd0ceafc1efb1ae8U,
  0x4ee11045fdf8ee13U, 0xa031e00271a0de7U, 0x4651120a0b4dfd77U, 0x2150f9f9fd0b1ae1U,
  0x10e3f8c2fd15da39U, 0x171dffe91e101af8U, 0xf91711ff1a170d10U, 0xdef1021d140514f6U,
  0xfe0edd16eafe1039U, 0x25e71fefd7e3d21dU, 0xf7eb0026c301f61cU, 0xe618f4f200ddfc10U,
  0xf302f13110f8e713U, 0x23212b0f0c1700daU, 0xcede13f1ed21fa0bU, 0x1c01f6fc2c240a0fU,
  0x326e7eb13f50b1bU, 0xfbf9081ee7f1e74aU, 0xe707f4011fee2ab9U, 0xa27dd02d9c5263aU,
  0xe111f162f13fe23U, 0xeafd1143faffe4c6U, 0x1c29f1010e0a43U, 0x2921da00f1e42624U,
  0xf22af30bf50e0c20U, 0x10aece5eb0632f2U, 0x1318191e1d190903U, 0x2d23ee29e6fc1214U,
  0xb3925072f1d18f6U, 0xd204182af3fbedb7U, 0x272c0a09e3110107U, 0xf612f50f2efc3cefU,
  0xf01eef5e6e90cceU, 0x1080ce9f5f703dcU, 0x2119f6fcff1d0b25U, 0xbe1e9e8ad040ef4U,
  0xfc060eebe217f208U, 0xb04eb0de1e7fbffU, 0xfff81f0dccf8e410U, 0xdfcf405e8f420f2U,
  0x16f7f51a071be838U, 0xfd1d14eaec0007ceU, 0x2222e0f60626ed42U, 0xd2102f0a080239c7U,
  0xf10d07f2f6112a04U, 0x7e42ff8fe0ffd13U, 0x2711f32ad00ade0dU, 0xef15e405f30bfef9U,
  0xf7f9e80821131329U, 0x12ede5ee0306f1edU, 0xfeaffe01fcc811ecU, 0xfb0f11f61ef42a19U,
  0x23f4cd04d701ec0bU, 0xffb1f919e30e0812U, 0xeff2e530e4f50913U, 0x11e02bcc020ce2f4U,
  0xd02318c2121511e7U, 0xcd7eceecf00ff00U, 0xf1f1261b0ce4f0f4U, 0x3d0bcf317d3ff0fU,
  0x2a1103070e10edcdU, 0xf5a81b0ba20fe5c6U, 0xf316ede90aea0b0bU, 0x1cf70cedd5ede6f9U,
  0x921f2f212043411U, 0x121ef216052fe61cU, 0x1e1d31f636fe1f12U, 0x14c6b0eaf62add31U,
  0x192e170734fb01daU, 0xf707ee26dcdcebdeU, 0x82b0f3527cae6e0U, 0x1218c50fbdd4df1cU,
  0xebfa11e6160c1d0dU, 0xfdf5f6e7f5e1f60aU, 0xed0f0713d03803ffU, 0xfdcddc08dcd4d7eaU,
  0x1c071507d00314f6U, 0xbcf1ec15f91400caU, 0xc6f7aee5e0e60317U, 0x1cfe4f007d20418U,
  0xbfff09810610f90eU, 0x5f2ddec03d4f6f6U, 0x18dfdff7e9edee17U, 0xfac302fdeaf20fecU,
  0xfef1f3e6b9f1d7f5U, 0xffe8e21c1710dff1U, 0xfcf6def7d9cbf405U, 0x28fbd5f2d91702e4U,
  0xe113089412050cd2U, 0xee7bf23e0e228d6U, 0x11f709ecc8c011ddU, 0x27c4f8fbe20111e4U,
  0x1af6ffbacbe711dbU, 0xfbb4fa16f0febdf5U, 0xefe4de27e2f1f5d5U, 0xff1513148f1ddc09U,
  0xbddbcbc0bee36dbU, 0x3e8f01314031113U, 0xec220addef1001U, 0x1bc71015271bb4fbU,
  0xedfe1ffdeae225ddU, 0xfe2320cc8ffef2bU, 0x5ecfd10f80cf4f3U, 0xf0232a04b311d9fcU,
  0xf4b1ceeeef0013U, 0xfd292af41213d919U, 0xa13fc12fd1a002eU, 0xf6ddcbe6103ca5fbU,
  0x4d6020327f8eb0bU, 0xed2e37c7efed0505U, 0xc312140120dffbf0U, 0xee0b0507c2dae4faU,
  0xc18e5f60e02e324U, 0x7f504eedefcd005U, 0xcf4d5f6f2f5e7ffU, 0xe703f90403eb2417U,
  0x8fd1301f213020dU, 0xe30df7200f2911fbU, 0xfdf11001f1f0060cU, 0x90b0f041f0c0df6U,
  0xfc0cf10e1309e304U, 0x13f100bdf50d03f8U, 0xa0dbe71819f2f6e1U, 0xecf7cbe90ef5070bU,
  0xff15d31f1c15fe08U, 0xc31ee3ee070df2d1U, 0xf115f30aeaf4fefeU, 0xfae7e0aa1ff5feeaU,
  0xbfaf01ffeeaf2c7U, 0xec1cf70ef30fd104U, 0xc0f60f1b0bfb0bb0U, 0x8f6a9effc06dbf0U,
  0x5f2d50c2516fee7U, 0xd21adb02f5ebf3e0U, 0xfa1c16f40bcfedffU, 0xf200f19d02810200U,
  0x6f2091212040cc9U, 0xf10dfbeeee17d106U, 0xd6fb00f0fdeacdccU, 0xfe02dcdefeff16e7U,
  0x6f4e80822fa0bf9U, 0xe80908fd00c5f8c9U, 0xf015fbe413e2f815U, 0xe4e3e1c306a428f6U,
  0x1208df08faea04caU, 0xfd0433cd0903b13cU, 0xc6feef03fa00e8e6U, 0xea0ce6edcef12af6U,
  0xe8f9e7e9ff00ea39U, 0xef16f8f33cb6c308U, 0x13170f0e0a14e927U, 0xe300c0c9eead24ecU,
  0xfd1cd2e8f605f908U, 0xe2de01f2f90310faU, 0xe5d8102609f015d6U, 0xe9fef6022cfc000fU,
  0xa2cf109ff3900faU, 0xf2fc10f5f5190cf5U, 0xd0c0126fd041602U, 0xe0a1aef1309dd00U,
  0xfe0b0f2c270b270bU, 0x2df4da05ea020e09U, 0xdddb1b34f3de1ee2U, 0x1904fc0b1a1bed23U,
  0x23f7e228243710d3U, 0xfd39061ddaea1cfeU, 0xed150127f4143a05U, 0x9020fe915fa0f08U,
  0x2320e03115f602e6U, 0xfe2621172025e4efU, 0xcbf4040011161505U, 0x1a26f7f1213aef04U,
  0x1bf7e909402b1ff7U, 0x41105160ffd210bU, 0xec12161604133215U, 0xde1c2adf4bf5f905U,
  0xb0ef22f01db0ca1U, 0xf5342ae01633ebf8U, 0xdb0706052032dcf2U, 0xc53d13e31e321806U,
  0x2202f30c2c28191bU, 0x3e22e203343f1031U, 0x2724151326f60a1cU, 0xdce10ace26de21f0U,
  0x411d92af7ee01c1U, 0xec2543dc0c23e3faU, 0xc4e2e7062cf0d0ddU, 0xda2523dff30ce9faU,
  0xf71fda0909100437U, 0x3e12f4f26416ea3aU, 0xe53128253df0fc30U, 0xecd9e5f223180efaU,
  0x230a440707240906U, 0xeb1504f412221028U, 0x11ecf8ddfaf9f007U, 0x19e80b16fa34eef0U,
  0xfcea29faf4020713U, 0x1b16e418f5121114U, 0xb0112f512091128U, 0x11001105ff0b0cf0U,
  0x2700160c140018d1U, 0x1a190b192c21ff26U, 0xfd05170201fc1c00U, 0x9fd16010612e014U,
  0x1bf3140907180bf6U, 0xc250cf603f3011bU, 0xfb22020125072218U, 0x18180cf900133103U,
  0x10f61211f400fbe4U, 0xf80ffe031717e706U, 0x4218fcf0f41cec34U, 0xfbde04fe2214cd0cU,
  0xfaff0deefbe8f9f9U, 0x170238d5f80e1614U, 0xaf926e1241226efU, 0xef19f70d1712fb09U,
  0x19f4ff2401ea1f1dU, 0x190f04012216ff0bU, 0xf4f6f0f4f5130afbU, 0x1d104018140ecf0cU,
  0xfbf2e5f9d800ea06U, 0x2207e2d20b152827U, 0xe8e117f0f61b06ffU, 0xfcfffefc28f009efU,
  0xe011012af20109e2U, 0xfbf00f00f8eb0b08U, 0xdfd6e2f6f6e9f6faU, 0xa0d3beefb09f80fU,
  0xfae5ffef0c03f2faU, 0x2911e6ff371a112dU, 0xf9f7270e11ed19f5U, 0xe5f7010424153105U,
  0x120e02d8fafd081fU, 0xf071ef7e705ffcbU, 0x1231f0fafc32fb14U, 0x11f3f700f0d91008U,
  0x60a0acff51ef418U, 0xfc11000df8f30ef1U, 0x100efbfeece8f5f0U, 0x3ebecc8fc03e5fcU,
  0x1ff5f5faeef90614U, 0xfe2326f1091bebffU, 0x26260d171d14f819U, 0xf4feedf8140cee14U,
  0x81c14fe0201fe09U, 0xcf0505df1502eef3U, 0x9fa0d1c1402f8f4U, 0xef160a0107d5f5feU,
  0xfc0b17f9ebf5e012U, 0x10010fe3fdff0208U, 0x10f8d7fd020ae3f5U, 0xd915fd0802010ef8U,
  0xefc07061c17fb16U, 0xf102def903131203U, 0xf513fced18eb04eeU, 0x10dae41111f30fcbU,
  0xfd11ef0001f9f218U, 0x11f6fd14f502fbdcU, 0xcf3fed7f90713f6U, 0xfd170ff9e3eb1d15U,
  0xf7e3edf7f40dfbfdU, 0xf5f0f0250f000614U, 0xe413f6fe17f210f4U, 0xa0ae70936e1fe13U,
  0xf714e2fff1d90502U, 0xa0f16dff8120f03U, 0x6f8f20ff5ebf7U, 0x9ed14f31d16e404U,
  0xb280c06f601fff9U, 0x14edfdfcfe0cef29U, 0x17040d242ef8f706U, 0xf4f5f9ef0aebdf00U,
  0xebfc19b60609ebe4U, 0xfc0dfd0e0ee7f1e0U, 0xfb2ae305e91bdb27U, 0xeedd02f606fc0809U,
  0x1cfc02c4f4f1e0f0U, 0xfb00f702ecf0cdf8U, 0x5e6dceefbdf00f4U, 0x20d5f702d9e6f109U,
  0xfc0614be1d1aff15U, 0x132322ef05e5f3ebU, 0x161a0de3f01fdd2fU, 0xeef2fff601061c1aU,
  0x10eb15d80bfef71cU, 0xe618fc181c0fe7f1U, 0x909eeecf9e0fef5U, 0x16f3e837f7e1ecf5U,
  0xf70db714f9fbe027U, 0x1ce106fcf9d015e8U, 0x2c0506fcf9f3ec2cU, 0x1f07de13dff9f1fbU,
  0xedfc291af9eb02f1U, 0x2e402f7e0e8d2U, 0xfaf206d5e8d6f0f7U, 0x1623c92f0100e2eaU,
  0xf8fef40313091903U, 0xf2f90512fedc1602U, 0x1500fb06d4f51202U, 0x1511ec04e2f8faf7U,
  0xf102120cd9f8eaf1U, 0xff09043702fedee9U, 0xdee6ebe00ae607U, 0xfc09df1de3ecd622U,
  0xfdf9d3fc040af0edU, 0xebfa09f6ebd00c01U, 0xded70aeada05f3ffU, 0x160e1a1af618fef3U,
  0x9020ef3e4f4e5fbU, 0x201101e527ecd915U, 0xfbd709df08f0d223U, 0xff09fb012621fef8U,
  0xeee90ad5e1f4edd1U, 0xcf0ed503241ffef8U, 0x3c27fb0a1beadd31U, 0xfce3f9060210dd0aU,
  0xfefbe5e1fce4fbd5U, 0xfff802d0c8f1da12U, 0xa0e10151df4eaf6U, 0xfef3021de5c007feU,
  0x34fae4e403e2ec0eU, 0x14491dd62d02ebe5U, 0xeb20d9def410e4f5U, 0xf9e70fe6fc3ef2fcU,
  0xf606d7d60bff15f2U, 0x21d207efe903041aU, 0x1cfeff02030307f1U, 0x6c5fdbce5fbda0dU,
  0xf6013bdb0b242f08U, 0x3af93ee206162712U, 0xdcd502eafe0c09fdU, 0xf3d6281d0d031afeU,
  0x8031214f007100bU, 0x47e925fa0422010fU, 0xfea051af4fe0a10U, 0xfe0d121fe6360531U,
  0xdc0336f5081631b0U, 0x36fbf23af8fa2822U, 0xedd727f40cd01fffU, 0x1bee220ff610fd0dU,
  0x10f0014fce1fff2U, 0x1bfe22cfef1ffa1bU, 0xefdfef90f180aefU, 0xe8f21523fc360141U,
  0xdbe514e1f0eff3fdU, 0x13ceb814bfdd1ffcU, 0xeee9ef17e83ef522U, 0x8fbee070407aed7U,
  0xfdebd6020efbefadU, 0xfadd01e0c0fc03f5U, 0xefde5f3f3d714e7U, 0x101806350708dbd5U,
  0x19e5adfed7dcd6e8U, 0xee1334c314e2cadcU, 0x181fd1de1234bd2bU, 0xdbc3e7c2cf07b7d4U,
  0xc6e1e3dab9c3e8ebU, 0xea10d496ede9b7ebU, 0xdebc1aeaf6e0b0e3U, 0xdcc8cadec9b2dbf2U,
  0x2ddbe02affbdd1e5U, 0x100626e008f9d7ceU, 0xc5e4f7db0ee4c4d0U, 0xe7ec1deed4f4eadeU,
  0x1ebc5e0c2d5f500U, 0xfdfbc4b62fe7fb00U, 0xe5dd242cefe6e4b1U, 0xe2fdd281f1f4e7eeU,
  0x43d9de19edfdd401U, 0xee2146da1919e1f2U, 0x1c36df2311fcd9f4U, 0xecf50cddee08fbf1U,
  0xe000f400efd2ef21U, 0xd125f7c90600f3f5U, 0xf005324df8fed8d3U, 0x50bcb0824e9ddd5U,
  0x28ed27ecf8fbe702U, 0x1f03350ceb14f616U, 0x1d1ae4151af10b04U, 0xf7bffe120a0705fcU,
  0xfff9f6f708c9f10cU, 0xde03dbd901ebd90aU, 0x2c32fb010bf2ddefU, 0x8dae3090602caecU,
  0xa8e357f0dffbedf9U, 0xfec696f0b4e02719U, 0x604fde1df03f6f5U, 0x21dfb9f3f5b70bddU,
  0xe8f407f7f1d600d8U, 0xe79e1c07d1fef8a7U, 0xea21e5c7e203071aU, 0x20603f6ddfef2ffU,
  0x2110f852e4f7fd0bU, 0x6f3f0cc03a5d5f1U, 0xf9d5e1def01601fcU, 0xda37c8c8cdc5fed0U,
  0xddcba6172914d211U, 0xbb35c11039ef09ccU, 0xbfed09e5f2d00c04U, 0xddc2e90315dd23ecU,
  0xbeecf4ef9c8d5c0U, 0xd1e514dff800e201U, 0x98d1dcdf0be0fba2U, 0xc928e4f1fed71bf9U,
  0xe2ddc1212c20fb20U, 0xc633bdde3a0810e5U, 0xebf4f60f3a09f4deU, 0xcad6d3a842ec11bfU,
  0x1604f254fed2d5c4U, 0xdb2824e5460ed8f5U, 0x99c5dbe71427c2a6U, 0xe3301cf32428080fU,
  0xf4fcc12a26280e1bU, 0xd4702f4242a4b20U, 0xe7ff110e20f61d06U, 0xe5cff4d162e716cdU,
  0x19fee72ff112db30U, 0xf3361aecf60ee500U, 0xfb0b042bf415d913U, 0x62b18f71ee31ff4U,
  0xc1c231920faef21U, 0x1e2c06ec3309fffeU, 0xbea02baef0b0505U, 0xfbf3e5f535dbf6f2U,
  0x15ecece8e6ecee1cU, 0xcc2bf2f71b1bfa12U, 0x72602270319dff4U, 0xeb00bf1b281afde4U,
  0xe50a1ae509f5e40aU, 0xddf91510fb18c7c1U, 0x1d0c0bf4f32111f9U, 0x171902dc02ff0becU,
  0xd5021919f2f02bfeU, 0x36c5d1f2d5fd1a06U, 0x2d1082100dc38e0U, 0x2221fe09f9ebfbfcU,
  0x2f92c291f290d07U, 0x7ff1b15f4191b00U, 0x132131100a2e0b06U, 0x72b03340d212a32U,
  0x6090a1a0ed820fbU, 0x111bef04f8111e18U, 0xd8effeef08fd2319U, 0xf04cfffef4080ff0U,
  0xfbf8ebf9240f02fcU, 0xdfb1a1806e83022U, 0xe62b0d241bf30f18U, 0x260aecdb2bde1f22U,
  0x190d1b15ff0f15a1U, 0x70ed5e60dddfbU, 0x7f6e7060709df14U, 0xdf241dea2311f327U,
  0x15f418341b2037ebU, 0x30f7f9070ef03a2cU, 0xb15030807df291cU, 0xf7f527f244fbfffdU,
  0xcffe08f60e090313U, 0x3dbf2d30700dde7U, 0x24000d1df8e9cff1U, 0xef0ee2ee35030aceU,
  0xe1f52b4218e60502U, 0x101ef800fefb4d10U, 0x9f5f8ca03d12834U, 0x8f42d1e00c9f3e5U,
  0xebf7ff12f105ece5U, 0xf51e33b311060001U, 0xf5ecfde9070600dcU, 0xeae027e10338f6e2U,
  0xfd06f501fbf7f4e3U, 0x1213f8181404e91fU, 0x23f6fb1026e6000cU, 0xcf005e41211f2edU,
  0xe17e1f6e70e05e2U, 0x17280e230e23fd14U, 0x2622fa0b0cec1f3eU, 0x13fd2818140ab0ecU,
  0x1f9050600f91efdU, 0x25ea07d4ff05e81cU, 0xf1f121a1ffffbf2U, 0x32d16130416f6fcU,
  0x20e20606e2e61ee6U, 0x53239eb1c220806U, 0x527170a08431a39U, 0xfae624142213d007U,
  0xfee7f6ebf6f7f936U, 0xf93404f00d1af80dU, 0x70c0202140bec0cU, 0xeef1ffcfe5fde020U,
  0x28f405e5e7d7f2ccU, 0xdf0e28d8150fc833U, 0xfa05f7fc0be8f9e8U, 0xb6f8d3dafb1130f6U,
  0xd10bd3ebfc04072cU, 0xa47e10f3604c50aU, 0xfeee0ef92ab6fa0fU, 0xdeddf4cfc7e723e3U,
  0xff5184a042b0cdcU, 0xd9f20cd603f20becU, 0xfcfbfc07f8e7f0f5U, 0xf032281804181fe4U,
  0xfe22fb0411fe1115U, 0x370f08fd27153a13U, 0x11df08f1061d131cU, 0xe4d337ea052f11f9U,
  0x300e42f08020606U, 0xf9f8fad6f509eb24U, 0xf3ee0b1701e903f8U, 0xee3a07e5ffd50d0cU,
  0x909ed200421ef04U, 0xf80ae629fd0a32e3U, 0xecea0509f60b0f20U, 0x6d0edf445ef3ff0U,
  0xef1e6f6f001fa02U, 0x1605e3e72cf80c1fU, 0xf309f70104fa0ec1U, 0xc400dcf2dfc6df07U,
  0xf5020efcccee0011U, 0xe2090d2af9e3facbU, 0x241500f9b0ebe5f1U, 0x131ee7230c1bf1fdU,
  0x10cf3a03def43307U, 0x3dd7296900f129fbU, 0x490fdce6f4d5edfeU, 0x2412e9faf8ee411bU,
  0xb0325f9e4eedff2U, 0xddeede1f16c518fcU, 0xdd15dbeaf5e7d9f4U, 0xf022bf28e7f70d09U,
  0xfafff5f9e709e9e1U, 0x26060b07c900d810U, 0x26ffeef71c23d765U, 0xcde3ffd2b913ca08U,
  0xc803e4e5d9c2cedaU, 0xe90fe9bffbfccafdU, 0xeb0e07e7ebd1c0d6U, 0xc121ee17f7f81311U,
  0xa0feacb080d00ebU, 0xfddc25e9f4f33bdaU, 0xf9f0e402e5f7f8b7U, 0x26da26eed81eecf7U,
  0xfdeecee3e5bc000aU, 0x19d9e20eb9eccfedU, 0x917f2fb1108f1fdU, 0xe3e305b2f805e8ddU,
  0x2cf1fd080c211526U, 0xf5d81b2b24df27e8U, 0xc9f9eb05e2ce1cf6U, 0x4b073af804f920ecU,
  0x1ef11f0e0dde213U, 0xece8e60df2f7f4e1U, 0xecf2d9fcc417f104U, 0xe6ff03d1f9f1e516U,
  0xf10f26e1df13e62bU, 0x3b1702f3f0db1811U, 0xdaef021208dc11dfU, 0x35f9f22d0fd004d8U,
  0x816023200ca00d6U, 0xdddae51bfed4000fU, 0xa12070bec1f0cedU, 0x2825f7dde536290cU,
  0xfd8d4aad4e2f0dcU, 0x3ddff2dfceb02eaU, 0x2228f41befe30104U, 0x42bde10c0bdde1d9U,
  0xfb00330bf4e3edbfU, 0xbdd8300a9ae0edeeU, 0xf0dfbdd5c2faacd4U, 0x1a6be554acd4e51bU,
  0x10e5be0eb50ecc4aU, 0x2f2616c708eecceeU, 0x490b03f3e711b71dU, 0xd4dc06dae90608eaU,
  0xe4f5decfe4d0ebfdU, 0xe321e6fcf5f0fce2U, 0xf0bbedb41ac3dcc5U, 0x1e0be0f4d5e1d4edU,
  0xa001d290111d112U, 0xccef03bdf7d9e401U, 0xefcdf3d3daeecec1U, 0x2f830ced6e4f9d0U,
  0xebf5fcb6fde7e72fU, 0x2ef2e81f16d0cce3U, 0xbcf7edc4e8edd724U, 0xafdd3df1af4f3ddU,
  0xeed81cff1605e3e7U, 0xc102fb1de21f12f8U, 0xe4f5190d12db04faU, 0x16fffb1e18e03eecU,
  0x23f214e2140006c7U, 0xebf1dd28edefe00eU, 0x1ef70cfcde0fe52bU, 0x3ce8f7e31df107efU,
  0xe7e528e30a4506e7U, 0x2702d823d7e624f6U, 0xd4f01329fbf005f9U, 0x17e00d0df91f0fe7U,
  0xdff2cb2306e6350dU, 0x151001ee150df41fU, 0xf2f1db08d527f018U, 0xf2826f6091ae4d7U,
  0xe51b2d07f2dc1104U, 0x5f9ff46bff8df23U, 0xe901240209131004U, 0xdfc1a052cebeaecU,
  0xfaf2cbf239ec2405U, 0xf5d763c215de04fbU, 0xdf0210cfcc3ccfebU, 0xcd4c3126dce81c29U,
  0xd5042228d9eade11U, 0xf4cdeae3f8e0ee2aU, 0xd5d7feab38dcd9ceU, 0xc54bde0dd8dc36e5U,
  0xdee6c41923fde5f4U, 0xcedef52bf7d9ddc3U, 0x83611b3f709cf19U, 0x1f7e1040eea6ee1U,
  0xb00fe63aedf7cbfbU, 0xc5ebbbd1ee05d3ecU, 0x111e7e309fad8d6U, 0xc22fdcdff6fd01ceU,
  0xd7f0f7baff16ecf4U, 0xc7afdf0dece7fd1cU, 0xfc12da11d9dbc61aU, 0x1c04bbd415f614e2U,
  0xe3d90fdce8fed9f8U, 0xca26320d1f360505U, 0xd91138eef2020ec8U, 0x22dcf5294522c8e9U,
  0xe632f4bd2dcf2e1eU, 0x222131cef08164aU, 0x13eaf1db545401dcU, 0xe7f62d011de6e20fU,
  0xedf419e8f13cef23U, 0x2307e3eb11f7000fU, 0xfd030f28c8e00bU, 0x15f604f2fdf726efU,
  0xf70a0706ffff0bf0U, 0xebadd630f30cfd16U, 0x1d02f3f2ecede216U, 0xf1e05e8143102c0U,
  0xf6dd30c906fdf8f9U, 0xf415fe0601f3e310U, 0x2312d8d32ae906e4U, 0xfaf21e03c910e6c9U,
  0x112103d1f4f808dbU, 0xd4cd12ffd2f4d800U, 0x191529091406d9e0U, 0xf70502edf8ddb1ebU,
  0xf4eae4f1fdf8f711U, 0xe6320ce512e2d7f5U, 0xfef3dbf82516e1e7U, 0xe1a00f1fb08f3d9U,
  0xea09f2c9e903e204U, 0x121600ef1615e812U, 0x17f611f720ccd1d2U, 0xefe6c9f0d9cff6e1U,
  0xfbf1f5ccdff6bf09U, 0xd3f6ffdadfcee4f5U, 0xfefabebcec11aa0cU, 0xd01f0dd3a30618e1U,
  0xc9d5d2a6d70dc029U, 0x2611c4d4251fcdfdU, 0xe9e0e1f6fedee2d8U, 0xf6fccee417ed08afU,
  0xd7f309f30316e709U, 0xd7e802d0d4d326f5U, 0xcfd4e2d0c9e30bf1U, 0xec1c1c3f26f431e4U,
  0xd300efc0d10710f8U, 0x3dd8cd161b080205U, 0xd4d7c9f0ef3a1d21U, 0x140227c2e315f7fcU,
  0xdedfaf6fb170ee6U, 0x15edef1c03f531cfU, 0xdef2d23be0e01f0U, 0x2ad6f82606f9e8eeU,
  0x1a1d58ef1ede3beaU, 0x30308e60cf312f8U, 0xd9e2f3f7f62a10ecU, 0xcdf3fd0fc16ec09U,
  0x2ce6dae0edeed104U, 0xdb09130e1bfaf4feU, 0xf80ce7d7ed0e0e0cU, 0xcaeaf6fffcfae7U,
  0xd2f106271feecf13U, 0xe7002dd11ff90ee9U, 0xf52bf5c3d2f1eef9U, 0xeb35051bf6f4e324U,
  0x14edf700ece912fcU, 0x37fe1d150dc1f0c6U, 0xff0211f107f0f907U, 0x120ee90eb51424c2U,
  0xfcfcdedcec10d918U, 0xfd27f22405ec04ddU, 0xe9fddcdbd2ffc80aU, 0x1ae6d0d11b121e04U,
  0xe90bd053baf8be00U, 0xcafbecf0dddbc5f7U, 0xf0d5c5dbdce6bbdfU, 0xd042e3aeaa041dc8U,
  0xdadc18e4c9edc50fU, 0xd6efb3ee25fae1cfU, 0xdce1febae1aee9fdU, 0xe5f2a1ef1ba425d4U,
  0x1ddd11e2040ec40dU, 0xe90906e70bc51bc5U, 0x8fbf7dbced6f8e6U, 0x2f39193bd1fe33e1U,
  0xfdf603c3dd04e017U, 0xad6d54a1efb81fcU, 0xde2ed271242f637U, 0x19d7d3c2210bbbe8U,
  0xfcfd10f205e7ecd7U, 0xf3f5ffe0f0db30e3U, 0x22380304e8ef2b03U, 0xf5f0defbf7dfd4f3U,
  0xf7eedaf8cdf6ead6U, 0xf4f2fc0be81d01dbU, 0xf9d7d8e9f5e918d6U, 0xfdf0ea10e7feec01U,
  0xe1fbebd80c152e28U, 0x3911f2fe02f414bfU, 0xefd1ffbae00b1ae1U, 0xeafa1126f013f805U,
  0x1befdff8f20e1d1dU, 0x37dbe8e6f61035fcU, 0xe5e70126e01636f9U, 0x12d127fe0726eee1U,
  0xf502eae30801303bU, 0x6f1ff1ff3d60cc0U, 0x8320bc6e5f626e2U, 0xe90ace2fece70420U,
  0xeb042807e8ff0a0cU, 0xfd8033bea4409e6U, 0x1e4f8edfc031801U, 0x2429085d002de5f6U,
  0xf3ffedd7fffe2c2fU, 0xf615f21e0a0711faU, 0xc3925e0f4ec2edfU, 0xf5120533e7121000U,
  0x1fb2504fffbf920U, 0x21eb110dff18fb10U, 0x30030be20010f91aU, 0x1e1cde0de349f40bU,
  0xb0bff01041ae22fU, 0xfe1ee51f20161c13U, 0x15fbffe82209fa04U, 0x1f0fe20f09ee1f2cU,
  0x2209f9f2fd040b1eU, 0xf6fa071be00c0b38U, 0x14ff2bec1ed6fffbU, 0x15f9e706052104fbU,
  0xc40907f80b02f4fbU, 0xf0bad21dcbce10fdU, 0x2ec7fcf3e5ef19fcU, 0x1ad6deefdae6e103U,
  0xeefdfebeccf313f3U, 0xfdd6f8e2d70200e4U, 0xcce2caf1be0ff3fbU, 0xfbc90806eaf0ce1aU,
  0xf0f0f5e2f3f8fc19U, 0xcd0bcece2e315f9U, 0x14edf912b7fd39fdU, 0xe0d52108fff3f2d0U,
  0xdffbf6f9eaf10bd8U, 0x10e715e608d9f3f7U, 0xeff2d615d0540b08U, 0xf00b3ee4ed1cfa25U,
  0xfc0bf2f0060916ddU, 0x1605cd1eeedcfd09U, 0xfaee111eef142d18U, 0xf2da083c09e9b607U,
  0x6f8ed4afff4f5beU, 0x8f042dbb60df500U, 0xe014c9eac86402e7U, 0x150b0832e6f3ec41U,
  0x11ebd1e5c3f11c0cU, 0x201bfb191edb07d3U, 0xedf10feae2022df1U, 0x31b51d0ce212b81eU,
  0xefcddd30b8e200e6U, 0xec1f2fd8f1eeeefbU, 0xf1e5f40de73e0ee4U, 0xf4190613d41ecb08U,
  0x1eeebc1ebf20b06U, 0x1bf5252ff6f219ebU, 0xf80810f00a0f10fdU, 0x27dcdc220100fcfbU,
  0xe6f115e7f7cef1e1U, 0x1f2fefbeb1cdcf3U, 0xfd14f0f000fdefd0U, 0xee23fb0ac823f3faU,
  0xe919110efe0fff23U, 0x24dfeef00ff0fe17U, 0xedde032cc5de06f8U, 0xe40016e910110f03U,
  0xbf9e405fd020700U, 0x7e6122ed5f31a06U, 0xe8dff3fef1051130U, 0xbde05e1f2f816faU,
  0x90e1feafa02e3c8U, 0xea2208e80e2bdd24U, 0xd4dce51909f0e7cbU, 0xd6f018fbfd160404U,
  0x618faf61403f207U, 0x10ed206f30cf225U, 0x1b1cfe291501ebe6U, 0xf2d2f0a80e02fbddU,
  0x1701121707020bcfU, 0xf31d1d0c2afe2ee7U, 0xebfd0400f8f203c7U, 0x1012321f2b1e030dU,
  0x15dfe120080d23f8U, 0x29ecdbe4fd073c27U, 0xf613f2bd160c3320U, 0xfbcb1ce325fb1701U,
  0xf4faec00e0f32421U, 0x2cf7052b0af30cdcU, 0x22ce1df1d2fe0723U, 0x3efdcc06f0d10d01U,
  0xe7d5f7f4d108e4ddU, 0xbcfc21f7e0f2eeU, 0xd8f7d2d726fafa03U, 0x1b0fe619fd20c5fcU,
  0x1ffdddd817f0d60aU, 0xf906f62502ecdef8U, 0x7ffedd2ec1c0805U, 0xf910caec0a150207U,
  0xe5c710ff06e6f300U, 0xd9ce3918efcfd911U, 0xeff61aea26f20d11U, 0xa34ef16e9f32810U,
  0x2036f80ff80713U, 0x24f00b01f6070708U, 0xe1fcfd1d16d308e0U, 0xcfff7151bed07f0U,
  0xf70f09ecee20fb22U, 0xf007f60516111cecU, 0x302e8060fee1e0fU, 0xfdecfde52a093f12U,
  0x702ed1025f4f905U, 0xee0420040902d81aU, 0xc0b042902152122U, 0x11cbe50b10fb35U,
  0x151b1ef9ef10fa1fU, 0xe81304222417fde0U, 0xf8f8f1e8e5ef131dU, 0xd01db0d03e9fd01U,
  0xe31b0c0f1a2e08f3U, 0xf1fc0c28d0e525fdU, 0x161e0b0f0010e900U, 0xe28170afd0d1708U,
  0x81232e5eb053022U, 0x2a0e05122df41ee6U, 0xf0dd13f0d706f733U, 0x1903f1fae8380609U,
  0xb02ef090c0a2621U, 0x1fe9e122e8f6001eU, 0x172618eb131f1bU, 0x17f4f1e8fceb03edU,
  0x1be1fd12f0e6f81fU, 0x1f50a06ed08f5d0U, 0x3e6ece1e2ed0b02U, 0xfe1e2805c1ecfb19U,
  0xc820ff0e030014e7U, 0xebe91622fff91dfbU, 0xdbc6fed9e4ec3eeeU, 0xc2700fa1f18e216U,
  0x6dfd817090a0ccaU, 0x2d0e3ef2ef02f11dU, 0xf9f506fbf7fb01faU, 0xea232afb05091d19U,
  0x23f5dcf0fee2f300U, 0x21eef518f53bf31dU, 0x1221062318e1eb12U, 0xf10a24fa0b14fe0eU,
  0xc1404010c05f901U, 0x27e93307fd19fd1dU, 0x1823171f1811dde1U, 0xc59fd12dc29ea12U,
  0x16e3de04040be365U, 0x111cef2ffb21ebfbU, 0x2514f40d0d20e845U, 0x1d23f7081df3fd17U,
  0xf6f4f5090d041602U, 0xf8ed121be20514dbU, 0xd705202f0205050bU, 0x323fc0ee0e503f7U,
  0x813e0030de2151fU, 0xef11f505211dd700U, 0xde1c0c1b0c3ff41aU, 0xff15e9dbf3041224U,
  0x120cfbc30f14fdfaU, 0xf302002106e80307U, 0x2fd250b17e8f6ffU, 0xdd7e717df010101U,
  0xbfe24260a0902e7U, 0xec09f9f7df292dfeU, 0xfbcf07e117d211e6U, 0xeff73f1d3e1bcd1cU,
  0xee0402233f1718eeU, 0x36e6fedcd9135206U, 0xed091e180c211309U, 0x10fc34f7fd50f406U,
  0xeb20fe52e4fd44e9U, 0xcde21fef1184421U, 0xdf73c1b31d747f1U, 0x3865525730f0f30cU,
  0x170be13f4b3b02e4U, 0x11140f07301a522cU, 0xe8032c200b6c3243U, 0x2e285613427f300aU,
  0xf6fceeecf0f1f6cdU, 0xf806fc260a1808d4U, 0xcfd901e3e6dcfdd7U, 0xf6e22016051aae0cU,
  0x6150919f9e8e7b4U, 0xadf30b8d51f061aU, 0x14dc0d1c220bffb4U, 0xe4fe221dfd20d9f9U,
  0xe0f3cff0e1ecefdfU, 0xe32530483acf11bdU, 0x3c28f5d6ed27eb06U, 0x2ee524241e0fd70eU,
  0x10d06dcebdeecc5U, 0x1dd114c2d4ec140bU, 0x17e8150a172210dbU, 0x131a297ed321b6ecU,
  0xccf303b715190c14U, 0x2ffbd52fbeba2af8U, 0x3b2010e3ef291f65U, 0x7d9ef2cc6f7d8e7U,
  0xd4e322f9cce52ff1U, 0x1d719f1e7f7d0feU, 0xdbe4f6ddfb14ede1U, 0x320194dc13bdf14U,
  0x95f30cb907253ffdU, 0x1fb9b223ffc41febU, 0x10517dadb030dfeU, 0x2ebd806d6ceeeefU,
  0xed1a08debaf4fa0eU, 0x2eb12aeb07f4e3cfU, 0x7dd0f07f9f8dff7U, 0xb311642c839f214U,
  0xdf03e69bf108dd2bU, 0x17e6e0e5bce7dbe0U, 0x27fed3b7d04cbc24U, 0xe9bbb6c7c8a1cc0bU,
  0x1f83abbb9ebf504U, 0x2c7e500e0f1ced8U, 0xe9d2aae7edc2edf1U, 0x17f2d0fbc5c5ccc2U,
  0x23c2e809e0ec14f3U, 0xf3da13ddcedd0ff1U, 0x34d7f7f8db03061eU, 0xf0eb041be5ded1e0U,
  0xe5bce204f0d704f7U, 0xfe0310c705f616f9U, 0xe7d9e4f7cc3e2ae7U, 0xe6061019f4e2efd0U,
  0x32f72c2de6f01adeU, 0xcd2326fa28e4200bU, 0x1a1504faef01eaf6U, 0x11fe29f8f0faf6bcU,
  0xb4e3cb76e4d3f211U, 0xf004e2e836e16c0bU, 0xbb0926eef951fef1U, 0xfcfc1b4031eaf1efU,
  0x5f071126eb06d95aU, 0x94d26162ce60208U, 0x4a41e4e6f804f71cU, 0x20806f9cf0e1beaU,
  0x4091a5bc1f7f430U, 0xf5f1200b09ead927U, 0xe812320107f8e707U, 0x44f0c92bfbf81bdeU,
  0xff5f2410d1ef236U, 0x5210f1a2aef291cU, 0x2118ddf2b2480e16U, 0xfe660028e5f11423U,
  0xe8da0c16c4f4d501U, 0xe9f813420f080304U, 0xfaefefe1de1e0966U, 0xdf90b3a341c3311U,
  0xcd0ad979dbf2d0f6U, 0xdfeaf2e4c9b8e616U, 0xef0bff0ec90bd21eU, 0xf76bd5ddcfd0f0d5U,
  0xebdd1bfe05fdd30fU, 0xf4fbc2180703d99bU, 0x4f3c4d0a8cab64dU, 0x14fdb9f669b526d8U,
  0x17ea0323fcd4d310U, 0xc0d03ddefe9c209U, 0xf3d7d6d6f018caeeU, 0xed3908e0e8df1cf8U,
  0xf6f6e50bf219bd23U, 0xe105d10831b6fadbU, 0xdbd0ecd7ecd4f208U, 0xfccebeeb29091ccdU,
  0x2c05e9261c11c649U, 0xc76357e5350ff0fbU, 0x1f1cf061841f6e9U, 0xeb4e07d511d343f7U,
  0xfdf9eeee354c2846U, 0xde19a43902fc1f15U, 0xee1c1d2523e70a27U, 0x6e6d0b444d811c8U,
  0x2a26fa50f0f1d825U, 0xef2be8f4d2f8cc1cU, 0xf2fcd5562bef98ddU, 0x666a3e21bb13405U,
  0x623f51f7f48ec42U, 0xde59163931c63ab0U, 0x182f19f305981232U, 0x1cefdff15fe037eaU,
  0xe0fc0171e9ddedf9U, 0x30bf4ffc4f1ebf8U, 0x1bdbf70ff506fd0eU, 0x1a68f0ffe2a82732U,
  0xe10619092f29fe04U, 0xda33da4c040603bbU, 0x20fde20bfb0429U, 0xe0e6c6f947c80fedU,
  0xd7efe444c823dd12U, 0xe8bd0ee5e2f5f919U, 0xddc6f61725c7fdf1U, 0xde540cf00ff71de7U,
  0xeff50de73d1ddcf8U, 0xc609f1f739e01a0dU, 0x17360ac3fc1c3714U, 0xeeedcfe02e0e4cc1U,
  0xdd1307d2da1f0eeeU, 0x11feedecfb1bdaf7U, 0xdd150e0b0df50222U, 0x61ce5f710eefa14U,
  0xdf293cc5f404fffdU, 0xf0e51800fb0cff09U, 0x2607250b2000e316U, 0x40212dffd0505edU,
  0x1b1ae6c2f7020532U, 0x2f1fee06fdf328e7U, 0xf430fcf50c431443U, 0x150fd002f407eee5U,
  0xa18d7cfef03f2d7U, 0xf40a00350c2abfe1U, 0xfb14185ae9ead422U, 0x2405f405cfeef31cU,
  0x240b0904073b27f1U, 0x463a23143714f1f8U, 0x1a130a1025563331U, 0x300afc0ff943fb29U,
  0x28160cd617083301U, 0x221b2d221a091020U, 0x22df091c25dd1f02U, 0x7191018dee9fa20U,
  0x9f0ed28c6ece822U, 0xfff1ea0303230ceeU, 0x3173d160de30803U, 0x5222cedd0ddbd6e2U,
  0xd2fc1e0a1832162fU, 0xfd0af2d4fef623e7U, 0x241cf5f511e8212aU, 0x1702e627f8d2240aU,
  0x2c15dd1a081bf307U, 0xef3c20d83543e320U, 0xe2eded0f25040f0fU, 0xf01f24d20c6c37f0U,
  0x52eebe31b1f0b1aU, 0x2f45d65723e9ed37U, 0x5e401c6060d2033cU, 0x3013c2ee22ffe4deU,
  0x1fff5c7e9def0fdU, 0x1bfdf708090dfdf2U, 0x2230e3e5d00ac004U, 0x7c718fe16ebd0fcU,
  0xf50af2f907b805e3U, 0xff0dfee1fb2004fcU, 0xe236ea081ff104dbU, 0x2645df1eea1601ffU,
  0x240cefb41605152dU, 0xe2827511c1d16d4U, 0x231c15fced4b1762U, 0x29ff05eff92cc712U,
  0xf0f7fbe6e7dcdf18U, 0xb2037faf80fc60dU, 0xebe9f629fa1ff2ecU, 0x12ea1304e600e834U,
  0x230dced2fbf726e5U, 0x391c47fb2627fa21U, 0x2237f821f5461922U, 0xf1e21b090e28ec22U,
  0x17f62afbd506f922U, 0x293c262105f2d40aU, 0xf1f5f2fc0fcddfe4U, 0x2d08dff9f3fcfe1dU,
  0x12f6061700fbfd01U, 0xc22e5c1b1e01f2a6U, 0xd03fcf9ee2d102eU, 0xf5302f22312ee5ebU,
  0xeccbedceebe5fa4cU, 0x7d18f9f20439fa2dU, 0xad9eeac0e2ffcf9U, 0x9fd525eefa23ea14U,
  0x29edc0fad405fcfcU, 0xd83851c52f1ce33fU, 0xeadf10eb18f60d0cU, 0xf64712d81c1eb5ebU,
  0xfc04fde74811f319U, 0x292fed033f322034U, 0xd81146fc46d21c23U, 0x18f312d732fa08e2U,
  0x240a0ef9fadef305U, 0xeb322bf53119e707U, 0xfe06f20f191de00bU, 0x7fd11cd04370cf4U,
  0xa06f40af5e904U, 0xf80fdf030ff2ef10U, 0x41c181a2befe80bU, 0xf7eef506d51dedU,
  0x13f01f1b0ef80a0bU, 0xf4160fec311de213U, 0xe9eb00ebfff8f9d2U, 0xe00333eb06140ffdU,
  0x7fde30df304171cU, 0x280d050d01ff0a48U, 0xc1105fa3813fe08U, 0xacef7e10b0411fdU,
  0xe605fe17fc00e4b8U, 0xf3031bea190bf505U, 0xdbce0cfdfef9fedcU, 0xf41e7ffc05e51304U,
  0xfd030323fe141416U, 0x1e1df5f612041a34U, 0x17010c1b092c14fdU, 0xdf0815271bfefdf2U,
  0xeb08ef13e9f00fcbU, 0xce20e02f4d606f8U, 0xe5c1f612feebfaf7U, 0xe3ef3eff10fedaf2U,
  0x8e2c91d06031df2U, 0x171e08e7152c1c3eU, 0xdef4f7d6fefcfbf3U, 0xf0df312a0f2ee910U,
  0xd1f31b16fd07f5b6U, 0x5bc02fcdccd31f5U, 0xdad60104e1d41dc3U, 0x27090d21fc10fce5U,
  0x4f7f9230203f1ddU, 0xf701fafb000810e9U, 0xebeb11fbed210ef2U, 0xee0c30220d260900U,
  0x3303233214eee9fdU, 0xf43b47f63336dc18U, 0xf844f51d1346e900U, 0xe60d0eed060b18f4U,
  0xf7fffd163403f513U, 0xf554e80d46f02118U, 0xf2505f536ce0202U, 0xaeae7e524f532fdU,
  0x2201043b08f3dffaU, 0x111553152219f8dcU, 0xda01ecda04fbe1d2U, 0xe50b1ff305fc20f3U,
  0x100408f600fdf61fU, 0xc16f1ec29021116U, 0x3114140f1af5fe00U, 0xf4f3e5ea200de4e3U,
  0xe1f2152002061eecU, 0x1be508d0f60f04f2U, 0x6dd09fc04f1fbfcU, 0xe51420060feb0eedU,
  0x3050c0d010c0319U, 0x1911dfe3222e2a16U, 0x17e4163410161deaU, 0xdaf917ff20270adfU,
  0xdcfd52f10e2521eaU, 0x35d5d02be2dd3615U, 0x13de160102ec250dU, 0xfbdc044000e7e10dU,
  0xfefef11ee907f9daU, 0xf7e917e0f9f415e8U, 0xf2fbee072215f7U, 0x21050b2b002ef001U,
  0xcf015eee160c0e1dU, 0x38cabf2cc4ea3b01U, 0x19001aeaf4f938feU, 0x22d4f83314e022f8U,
  0x16e91e0aeff1fac7U, 0xccca201ee70c10e9U, 0xfef5f3d5ea0b26f0U, 0x2912232ede261621U,
  0x1003e5001ffef6ffU, 0xe926250d13ecece4U, 0x1045ecfc105cfd3cU, 0xf905f3fb0b1915f8U,
  0xe515eeef0d21f505U, 0xf12fe3020df7f805U, 0x803ffe622e108e6U, 0xf7f9022105dd00f4U,
  0xeef303f7fb06f7feU, 0xf0f0e8fd01f9eddfU, 0xec070d130b08e124U, 0x11df6fd160f40fdU,
  0xf5191ee924ec0b16U, 0x17f405142a22edf3U, 0x120104e5f710ed05U, 0xeff8040c0bfd19f0U,
  0xf7fafce7190be92eU, 0x2ff01e4040afb02U, 0xf2f10c100114e91aU, 0xf20c140e16010ff2U,
  0x70205fb03fb1efeU, 0xbf2f5fb010afa01U, 0xe13f9fb0d19f50dU, 0xe40b07ef03220af1U,
  0x2105c403f8fd30U, 0xf1f6f91cfa02fd2eU, 0x191bf92603dd04f1U, 0xf2daf508f6f3211bU,
  0x1b32131e07f0f5f5U, 0xe22220ef0ddd09U, 0xe221deefc1ff502U, 0x3c261216e0121a2bU,
  0x151714e1f4150957U, 0xfc11d00ff5191e16U, 0x38561d1d072b280eU, 0x8ddf630f4131c13U,
  0x948610615d425feU, 0xe8ec2604f903e0c7U, 0x4736fc09041ce7edU, 0xfc151217f50d0f14U,
  0x1604202016f7020eU, 0xd0e040303f9011bU, 0x2705001100fe0a06U, 0xff01f603fb17e708U,
  0xb000111fd0c09U, 0x1ff1111db02f5f7U, 0xf2192ae7f80ff814U, 0xc0dfc34ec02101eU,
  0x40be4faf710ee0dU, 0x1fff913f70bee07U, 0x207f8f801faf50eU, 0xfa1208fbf01a1decU,
  0xfd0d05f40a0116feU, 0xff09061317fe0600U, 0xeeeea07f30017U, 0xf4f9f10c0511fb10U,
  0x2aef05fc13fd0019U, 0xe4fa110810180efaU, 0xf6e1f5e505f6fb16U, 0xf7fb20ec03f411eaU,
  0x6fdf4fee20004ffU, 0x1b0511fb0800e30eU, 0xe20c0f161008f100U, 0x11100a121712190bU,
  0xcff0ef4fb1af70fU, 0xf4092c01050e0603U, 0x1617fa250e04fc15U, 0x120715ee061ef8f0U,
  0xfa042ce810ec0b0bU, 0x1dfcfe20edf1f208U, 0xd1d1c001f17f525U, 0x1a1500f7ebfd05ebU,
  0x21f810ef02110307U, 0xe42906fcf9290bfeU, 0xfd140d030c0bef1dU, 0x1401d503262bf516U,
  0xfe150def23ef0e1aU, 0xfe12040f050ff80dU, 0x82017371a0602f8U, 0xf30503fed902f9fdU,
  0xf206fc03180c0d1cU, 0x16e7f913ed040a19U, 0xdf80f18120526fdU, 0x2106000dfffcf70aU,
  0x6f5f0160616fa01U, 0xfb14151b130a0e04U, 0xd5161704e904121dU, 0x7fc140c1702011fU,
  0xf0050ce9fe1107ffU, 0x16f2f00df407f9feU, 0xfceefaf9fcee16f8U, 0x1f8ecfdfbdfe607U,
  0x90aef13010b0bf6U, 0xfbfe171302f8eef6U, 0xecfdf8080dfaf311U, 0xb1bf706fbf107faU,
  0x60510f818fb08faU, 0xf3fe0a13f90119f7U, 0xef011605080113ebU, 0x708f20ceffbfde5U,
  0x3faf9e9f3f90114U, 0xb0b02001bfff6eeU, 0xbfbee09faf7f3fcU, 0xf610f9f5f2050310U,
  0xd01dc03ef0af40cU, 0xf60408130110060eU, 0x501f7eb081206f4U, 0x1f100b04fe0efd00U,
  0x5090f09fe000401U, 0x30a04080b060af9U, 0x1d02fa0afc030bf8U, 0x15fa1ced04151005U,
  0x1101f9f0190a010cU, 0xf81120f813110312U, 0xfd10080107ff0c0fU, 0xf9f003ff090d0ef5U,
  0x1fc0605f7020610U, 0xf312fd06fef8fffbU, 0xfafe06190afef7e8U, 0x509ebffeafbfbfdU,
  0xff0624f20befeaf8U, 0x1d06fce317e90a0aU, 0x1bd05f8ef14f60aU, 0xf0ff26e8f1de0203U,
  0xf612e8fdea040a08U, 0xfdeb0d020b06ef04U, 0x1debf1050bd5f6f1U, 0xd111d3c60401050dU,
  0xfb090c1af2031df9U, 0xb0b021cf6d6eff2U, 0xd14f9eef2e5faefU, 0xc80ae21ffefb0bdfU,
  0xd706ea29fc0d0305U, 0xe106cafd141122e1U, 0xeef5fd17e61b13fdU, 0x6e11c170bfe02e9U,
  0xdcfcc5f40fe7ea0fU, 0xeadce609d5ffd2U, 0xe706f707cbffe3c5U, 0x11e90a03c219e9f1U,
  0xc7fa27ea08e1fdf3U, 0x50a020dfa09240cU, 0xe4d6070403dff4f8U, 0x834fa4fe629d9edU,
  0xcf304f4ddfb0d3cU, 0x1031141511fa3400U, 0xdd0508f4be023dcdU, 0x1130326fe0109ddU,
  0xe0f1040dead8ecf4U, 0x190f0516fe221715U, 0xf80a0f08f52b091aU, 0x3c243600e259df22U,
  0x26014b241832f014U, 0xe90b58350ce7100eU, 0xa0f03fcf4c413cdU, 0x4234fa3bf11e5505U,
  0x131302e400f2fe7fU, 0x141613543845f91cU, 0x121c1c07ff12e94bU, 0x70906fb053b1b27U,
  0xf40afe2b00fb0801U, 0xc5bee1feb6f6f52aU, 0xd6eaf61ceafc10bfU, 0xe20e1bfcf5e90df6U,
  0xed14f2e2fa18261bU, 0xe2e311ed210b15fcU, 0xe2f1eaf0bd1df919U, 0xeee112e749e90d1cU,
  0xd3ef1e1fe023160dU, 0x18d2d504d9cf0f1aU, 0xe2d41f240dd745f7U, 0x31f321617f90afcU,
  0x8ec1d2923f803ecU, 0x14131c16241d330eU, 0xe41bf0feed1d0327U, 0x90f334e18281915U,
  0x1fafc0ff007fe03U, 0x7efea0c0ee3fd1bU, 0xfbe828f200e51d1cU, 0x26ff122417f515d7U,
  0xedecf647ff081bc9U, 0xf209f20edd0a42daU, 0xbf19ecdafe410e06U, 0x1f2d3bfe00143709U,
  0xf515e90ddaf3f50cU, 0x414ebfb0cf5eaceU, 0xfb07f0e510db200cU, 0xdbf34702ea00adf4U,
  0xf0ebed16d606e9d4U, 0x12d8fafae21116ffU, 0xe8f209b5f440f307U, 0xf51ad902f5320905U,
  0x1b0bf4e3ef021b1aU, 0x18fe1f210a3715e2U, 0xef0104ff21045cecU, 0x38ed2844140c2df6U,
  0x3c21050af10b01U, 0x1c00052ae315f845U, 0x4d1d38f720391ad8U, 0x2d21111de04afd1eU,
  0xe823230c3f0ff923U, 0xf0c7d821e3f9f735U, 0xe5b0ec4404b021d8U, 0xea340b054e0d24feU,
  0x42fe6adfb14fe1fU, 0x2d3151c0214e924U, 0xfe0c150fe1f8033dU, 0xffb22bc60c13f41bU,
  0xdb274ad8244715e6U, 0xff6f5eef642194cU, 0xcaf11e4b31defee7U, 0xc1522102d362afcU,
  0x725f004302914f1U, 0x1f0c13341d1b092aU, 0x2a0d3a0216f6225cU, 0x16f734f0fa0131f0U,
  0xd9092c27180c0edfU, 0xfdfded08f8091317U, 0xa0eef06012afd23U, 0x8ed0a19300ef0e4U,
  0x1b17095644eb1ad8U, 0x2ef20abb00102201U, 0x1c1f11d22d472ff4U, 0xa2372b1f26161115U,
  0xb5eef6eee4ea044eU, 0x8d4d915c4ee121eU, 0x3cb09dbfda90e03U, 0xbf01f0111e8fafaU,
  0xfce0bae6defef5c2U, 0xf3c9212fec0bef05U, 0xe90effb80f2be027U, 0x2ef50f10cd24180bU,
  0x15fef1eb1b06de29U, 0x6221d281318f40cU, 0x21909e61f2225f6U, 0x3fef28350c372dfbU,
  0xe0a20f70ae8251fU, 0x171a0c34f8e3d919U, 0x530814fc3f19f8f4U, 0x281e1204f31a5129U,
  0xe71252d02819ff23U, 0x9ff1b1d2421fc01U, 0x60e101816ee14edU, 0x7f901000f2c190eU,
  0xfc2c06aaecfb0201U, 0x2e00f4430a0ee521U, 0x30cfd2a1ff2f32aU, 0x26e9f4fdee1b1f12U,
  0x1524f0a31e291cdfU, 0x70d121b05091d2fU, 0x143c343b15dd2007U, 0x44dcf60e0a23fd0fU,
  0x28461bfc2bf12dfeU, 0xbea32440629da0eU, 0x3d27130414fb1707U, 0x2e19282cc9ec0b17U,
  0xcff6291b152ffde2U, 0xeffce823000b171fU, 0xffde1221fffaf1f0U, 0x3301d3ef1514fedbU,
  0xefd532354cfc0af3U, 0x17e62c09f7f72af8U, 0xedf91dd630b5fd0dU, 0xd38f93ed511192cU,
  0x308ff3608150fdfU, 0xe006061d000b110dU, 0x2a2b0cf21423031bU, 0x180622fb1c11ea28U,
  0xf3dcfcf322060ef6U, 0xc01fe25efe3e8f4U, 0x1f1b06fe2807141aU, 0xeb04ea04f10b31faU,
  0xb0ee80814f40404U, 0xde3a4ffb3a2e0b0dU, 0xf70e0e093d11151dU, 0x232170a22402003U,
  0xdd04f62040fe2454U, 0x4e441bd1220a0b1dU, 0xe41f28202211eeffU, 0xdd150b091c123705U,
  0x1a0fe3cdf8f4ddc3U, 0xf1001a1b0deff31dU, 0x3220914dd050a01U, 0x1ed60aef090a1002U,
  0x60b00f900e2f4faU, 0xf8f82105052af104U, 0x2a0ef8eef8fc03d1U, 0x10f200e4e7f8f1ffU,
  0xf50910cbe834fcd7U, 0x1df9060df9062708U, 0xf4fd1503e7dee7eaU, 0x41bf10fffb10e809U,
  0xf0ec1b0efff62bfaU, 0xbe91f05e8fde408U, 0xf1fb06dfec120cd8U, 0x374d0e3ad91efb14U,
  0xf4f0fb08f8eef9f2U, 0xe505da3307ee15feU, 0x1e0e00f2ef141422U, 0x35e00a071103e0e9U,
  0xf8e43b220df310d7U, 0x1ce30de5ef03fbf5U, 0x260d120d07f51afeU, 0xff3b0e1af9ff11f1U,
  0x11ecd0040220e207U, 0x1515ea0e1e110107U, 0xfd19e6ebf11e0820U, 0x1f813f21a04e5f1U,
  0xe6eb0b0d1206ffdeU, 0x4e2fed7ce09db12U, 0x5ff131d191ae3e7U, 0xd0d19f30220d6f7U,
  0xfde60c0303ff22f0U, 0x140740d7fd3526e9U, 0xffed22fa120917f5U, 0x10481e161834f90dU,
  0xf3efe9092515f220U, 0x3022f9e5240b1524U, 0xef0414172d34f71eU, 0x101d15f61934dd10U,
  0xae31c041d0d00a01U, 0xf32a11f138e8ffbdU, 0xe0ff07384d28d6aaU, 0xcbaadd1132f9391bU,
  0xe5acbce7c3100b41U, 0x31c2b74df416cb1aU, 0xc1e5e3dee5d33841U, 0xd0af18cdd7213ddfU,
  0x34108f338dd16ecU, 0xad3af4bc2003100bU, 0x3e2ce132eb1cdec2U, 0xaca21fdf16f4a4e0U,
  0xb6b8c1f71028e9a9U, 0xb0c5c5de92ce06d8U, 0xfa352828d4b108edU, 0x3d0bf198ffad809U,
  0x319bc48ffa112336U, 0xd0f91eda1a00ccc5U, 0xd00e183cbc1c8331U, 0x1de543ccb90388d6U,
  0xa59eff13840bf3f6U, 0x23b2c5afe7959de0U, 0xb1b5c9ec340206e7U, 0x160ec81c07d2e4f4U,
  0x9bf50ea4d3d8b3e1U, 0xc29c462934a822aaU, 0xa4fa0dd7d1dc2f1fU, 0xadab0f09102916aeU,
  0xc0ba178691f097f1U, 0xc4273a12c3c9eabaU, 0x1404feb726eb26d2U, 0x5350de2c9bec627U,
  0xaff93a19c53a400bU, 0x3d42c0da35183d11U, 0xce06e7c0cdf91a41U, 0xf33905f9b2b7dcdfU,
  0x16b426d619db412cU, 0xafafb02e20bf2943U, 0xf32bc8ee19f9f1e2U, 0xc6d12d46c9c9c5e0U,
  0x1b25ed4e2f4f20acU, 0x6d33feb0ed7fdf3U, 0xb7bcfb3217ef081aU, 0x40081042fb4214e5U,
  0xfac0e60daa2b00deU, 0xb444b53c1ebec7dbU, 0xbec3fff02313e13cU, 0xc733cdb61dbf35caU,
  0x3b441f29001a0ca5U, 0xbd2033c64bf819afU, 0x24c6bcffbecf1cd0U, 0xfab6a00b45b7a40eU,
  0xf1fdabb0d33cd7e7U, 0x8f0923e2033eaed1U, 0xb1d60b13dbbfb207U, 0x30ba721e2fad9abU,
  0xf101624f140e2b2U, 0xc5b7c3ef3eb9a114U, 0x4ab05a48febf0beU, 0xa0b6b813f5d3b812U,
  0x892701c9b81a0209U, 0x2c299d182909d334U, 0x10f82122209f0b40U, 0xf783110fb6f2adbbU,
  0x7cddead0af4daffU, 0x16b6dbb221f72082U, 0x4d82dada21cffaaU, 0x461905351bc4dc09U,
  0xedd4b5f602f0eb95U, 0x3fb7cb10ac238533U, 0xb51412efca0fd9a3U, 0xb71dabd49cf5eec0U,
  0x30a6c5910a3eddddU, 0xf272cfa1eb1ae0aU, 0xdba3e64437ad3d03U, 0xbe1c2502ab95c1d1U,
  0xcdb41fde8a14ff48U, 0x35accaabaf2dadb2U, 0x22e7b51d223bdd11U, 0xbafa30cbe7bdb1d5U,
  0xf90a002e3a3de8f7U, 0xd6fc26423dc137b3U, 0xd1f53822251ed8bfU, 0x28ddd9f6bfd3e3b1U,
  0x40092be6caecd8dbU, 0x433611fcc7e82a0cU, 0xb93322bf010910ccU, 0x281d47b04bc3b6acU,
  0xf39cd8fb2a2fc3f7U, 0x48a0ac0a0495b304U, 0x9aba92dabcf9312U, 0x1625bcffe4019505U,
  0xd2b8211abbb727c2U, 0xb6ed3dbd14450198U, 0xa6b0b19d83f71c09U, 0xf2bcecbc34f9ebf8U,
  0xdcc20fb31019cda1U, 0xe023edd002d4dff9U, 0xffdf0123bce9b127U, 0x3cc9d818dbcbd43fU,
  0x27a9f7cd0a0abbdbU, 0x27b9ebcae5aaced4U, 0xf4b807351a1328f1U, 0xf0e2f3f8b929fd28U,
  0xc1ccbaf4b109fd31U, 0xb1cd4de5b1c7bec3U, 0xcfe9f53a87d3e8bfU, 0xb32bf9b2151c07c0U,
  0xc2ea95e1320bcacfU, 0xac600fcafe4d4c7U, 0x95efcde090ab8df2U, 0xe537cdcd34c6ab3eU,
  0xee07fbec17b8b311U, 0x2b08c342330643b5U, 0xcdbb35c4079daaa4U, 0xebe044087b8defbU,
  0xf51121a70bb0bd47U, 0x5eeae26041efb3fU, 0xac1f40f6e6d727eaU, 0x1e1c0d03e5a7b8d6U,
  0xb609e1a0ec0f129aU, 0xf71b363720c2e7dcU, 0x342de3accc35ed4eU, 0x361f0dcdbfc603caU,
  0xaeb71b03c4e436f0U, 0xcfd1da0649f0044dU, 0x46313b0bf8bef810U, 0xfa000141b4f01507U,
  0xf705f1a794a9e4fbU, 0xf70809ebc406b2c5U, 0xf2f206efecead6daU, 0xaacd02c3baabc3aaU,
  0x3a20dbd52434aedfU, 0xaaee9dfcd00545e6U, 0xa8b2fa05e613d0b3U, 0xd8890dc90e00b2afU,
  0xb4d39b0721da1f25U, 0xfb15d08ee51bb987U, 0xe30824e50142b6e9U, 0xa1ebb643c50ed628U,
  0x1094c10fb9c7acecU, 0xecf6f3cbb6f40b0bU, 0xb2c2fe201fdc482eU, 0x18e633d0ca03cfd6U,
  0xbde8d0b6d0d238b8U, 0xbeeceec2b17d3ceU, 0x900ddbead3ece1b8U, 0xc916120e83ed9d1eU,
  0xb00f0d4915ceb3f7U, 0xe6bfdacabe9fd5fdU, 0xb5a8d63e3afffae7U, 0xdefed5dbc91611b8U,
  0xbeb292caee12b60dU, 0xcd1cd91d2ef54615U, 0xe442f805cce2c1e2U, 0x47cdbbd328bcb53eU,
  0xd0b19efc03f703f8U, 0x7e8ecafac27e91fU, 0x1bfbc004eeedd9d8U, 0xe3c00a9ff0178a31U,
  0x39bb34dcb5421bbfU, 0xf60e21b344bafee2U, 0xc3cd29f025d2e1f6U, 0xde88c6ffc2b13836U,
  0xb0f2baff1811d444U, 0x93ce26d143e909b1U, 0xce32b83c0e34b3efU, 0xf79c041ab1fb41bcU,
  0x1ffed90745d2070dU, 0xd3f8e51513adf131U, 0xc0ecce0e0d1bb0bdU, 0xd6ceaa8dcb3b06cbU,
  0xb4bdc63ee0459d18U, 0xb503b8c9d49ddb88U, 0x3feec9f92604aa09U, 0x90fc12ef17f0118cU,
  0x481e0a0d493640d8U, 0xd2c0c798c70aaba0U, 0x1c30ded4e0f1e5f2U, 0xcf3dda160be0af30U,
  0x3501ed2ad5b3f3bdU, 0x1de4b82d0f0432edU, 0xc0b0bbf1fc1c1344U, 0xe17f4a28cf4f7efU,
  0x94e6ba4abbf0ac19U, 0xf8a78cece60c2600U, 0xe4d520848b382eccU, 0xe2cb313ffd91fecU,
  0x27bded28e1b0dad7U, 0x363db226d88d42b8U, 0x1e00f347a4c91745U, 0x1444330a36db08f9U,
  0xf82bf10d34c60af4U, 0x1ced031aa5c8fdd2U, 0x7f648c3ea9ed1e7U, 0x4747dfbee507e31cU,
  0x3f0881473a3cccc8U, 0xaefc44183cfc8c16U, 0xb8cd014695ecacc4U, 0x9bd33df4da9f9c9U,
  0x2ff3391202efec25U, 0xf73326bc0df50610U, 0x1b41e3eeea22e527U, 0xf4f9f2baf20309fbU,
  0xee0f1bccfbf8f616U, 0xe202f31c0e0409eaU, 0xe4ff10faf6d2e90cU, 0x107d021e9d621e9U,
  0x250e400112dc0218U, 0x5ea08d5bae8da18U, 0xc4cfdff2fc110d00U, 0x706fcebeed218d1U,
  0xee715caf10dea3dU, 0x18f5d70f23d3e3f8U, 0xf719dd0edfdd0c2fU, 0x8f9dca000e72611U,
  0x15090f19f8f32e27U, 0x71934e42409c807U, 0x25f5e6eb140922f5U, 0xec310df007f72926U,
  0x3325e3f325160035U, 0xe511ea2837e21314U, 0xfa14f70efcf82206U, 0xfeadf3b519d71b0aU,
  0xfbfef617dbf9ee11U, 0xede0fbd4fdedf8f4U, 0x1a00f830f903032dU, 0xf40c0d1b0def0d1dU,
  0xb0afb26160ef7efU, 0xe415efe9fdec19ffU, 0xf8fee1edf4e601eeU, 0x8fc061407df12e9U,
  0xf709d20adae8f4d6U, 0xf7e8d50f19f30bc4U, 0x601f6ee07170d07U, 0xe9eb370a0c3dcccfU,
  0xee40b2910ff0e95U, 0xf3f8fdf2b812fff9U, 0xe2f60de0d0dbd3caU, 0x30b19fa0efb0413U,
  0xd91239edf0080d08U, 0x241fda1b0bf3fefdU, 0x18131e22edf0f120U, 0x1b07e0f900052b09U,
  0xf21521f601ef0be4U, 0x5d8f31fd60ed006U, 0xd0508d40fefd608U, 0x241de601f8ed1919U,
  0xfc0bf3d7f3e4c70fU, 0x6e0f3e4f315e1f7U, 0xf30b021beffef4faU, 0xf5e0fbf101fd23daU,
  0xda1b168ffad31a12U, 0x29f3ee14ef378809U, 0x4aeeecf6ec1dd2ffU, 0xdf30fddbf90ae8f8U,
  0xeaea2eb4e0f514bdU, 0xfac4d0a5c6d82b1aU, 0xb0d52e3adaed169fU, 0xce32ff1620eb32feU,
  0xdd1cf5ba1c001ee6U, 0xec0005dfe43d02f6U, 0x2715dbecdf2707f2U, 0xe6dc33ac051ceefaU,
  0xe1fb2bcd190a0d09U, 0xcb5b6f9e0b5c71bU, 0x2fafe12f0fbf6e6U, 0xee0dbf60cfa13ecU,
  0xe9f0dc0e1bf6ff15U, 0xdaf00302d9dd10e6U, 0x9f8e2f3cef2f8d4U, 0x25f9f71ce3e505ebU,
  0xd1309c533e7fafeU, 0xf4d5bbfdc9c3ecc6U, 0xfaeaf1e0dae2f0f7U, 0xf4b6cf0503eed402U,
  0x9d6010c1bf6f9c5U, 0xb4e9fdc4d3ed3ef1U, 0xede9fec0f7f921c8U, 0xe5f71802f9dccd04U,
  0xf4e7fecdd10a04ecU, 0xe8f304f5d8ef080dU, 0x501363ae7d4171bU, 0xfb1f8201b19bef1U,
  0x906fbee04dc37d8U, 0xf9e25d14bb21dafbU, 0xe7eed2efca3a14ceU, 0x16292930c804e90cU,
  0xbdfd24eaf7eeebefU, 0xe8e7bbf2c1fceb2cU, 0xe8c706ffeef3f5c4U, 0xfef32e1a2214f4e0U,
  0xe07223331d31ff5U, 0x34f41fd80c17de29U, 0x208e1bbe32c0605U, 0xe0d36f1f13a090eU,
  0xfb053eb24e45fecdU, 0xe103f0f9f21242feU, 0xbbd91af01ed918c0U, 0x1307472e090143d3U,
  0x3f0e13efd21e15f7U, 0xfed3fc07fc2ce503U, 0x2d17fb1a176b140aU, 0xd0b17d0ba520000U,
  0x292ffc810f1610eaU, 0xcfbe5e80a17e716U, 0x486dfa4a1af8f141U, 0x4d9b2d90705100cU,
  0x1a503913e5081a16U, 0xa6bd2dead912c2e5U, 0x1eeede61fbaafbb9U, 0xd42bf347bccb0ff2U,
  0x1ef210ca2dfb0523U, 0x93ce8b81700d5efU, 0x19540813fb4ac421U, 0xaabec1cbfa00d5f2U,
  0x4090ff0b8ee221dU, 0xf3d5f7cfc307f2cbU, 0xe3d8f11d06eaefccU, 0x2f80d17ddd6a1d9U,
  0xfafa1c11f5090221U, 0xea17fdfff6ece332U, 0xd9f2110f06def5cdU, 0x18eef6dc0f18ed07U,
  0xdee6f8fe03efe1e9U, 0x7d5fbfcf1f7ef11U, 0xb8040fdcf5fff117U, 0xfcca0c16ed0201e1U,
  0xf80bfe030613f9ffU, 0xf0feda0f060bf70fU, 0xf90c03241bd8e0deU, 0x210813eb0604eb0bU,
  0x8f508e801eb0c04U, 0xcf4000dfee9f41cU, 0xf10521e513e61b0aU, 0xa0fe1d41618e8e5U,
  0x35010bdaef0409deU, 0xed272725320f3bbbU, 0xf0560af1053d1301U, 0x2bc1272708e718f2U,
  0x3282495b2da1a15U, 0xdf4eee5181aac2cU, 0x26ef0439303de414U, 0x20d0fe7be2cfd0aU,
  0x25e515cbdfd814f9U, 0x2f0931f4f2f40702U, 0x102ce721ca0a1b3eU, 0xcdd817fc0122f1dcU,
  0xf410fffbeaa2ec10U, 0x12e720c416f4ee21U, 0xfbe1020dc534e8d4U, 0xda01370fca34d603U,
  0xabda14dff5f2d1f3U, 0x4afbc05bfb00bdcU, 0xdecbf7ee8df6d5faU, 0xbfc5e712f192e0beU,
  0xc3b0d935c8d5dfd0U, 0xb9c51eb3b42130ceU, 0xbae6bd9b8f3729cdU, 0xff012608d024d5f5U,
  0xe4ffd9500b0c0411U, 0xef0804edf20504f4U, 0xf3d31646060dfce8U, 0x13350e130a202d0eU,
  0x9ee0df32d18011aU, 0xf20d13061a2329f6U, 0x10f2240ef1202c0fU, 0xff1504e60df1eeeeU,
  0x1ecda52020ee200U, 0xe613032a0c03cd19U, 0xfbdcfb14f9def1f3U, 0x817140a0c05fbebU,
  0xfae6060d49edfeeeU, 0x71b36eef9ea020fU, 0xd6230ee414ecd1f9U, 0x1513da0726fd1318U,
  0xffb213cfc09ed0aU, 0xcc010806e10215e9U, 0xb9c3f8ca15f4f6c1U, 0x52d33150402e407U,
  0xaf2f5e723dff4ffU, 0xa1413e20914dc1cU, 0xf72d12041015c5fcU, 0xed260a1650252116U,
  0x13f73ef4f40a0b2eU, 0x19faed15e2fe1507U, 0xeffafedd09dd30e4U, 0xf409ff19e9d124e3U,
  0x4dcf521f8e61c1aU, 0xefd80ad645fe30faU, 0xf100af2200cecU, 0x311f1a0c0e1e0600U,
  0xe7fe29ef2f090606U, 0x44bcac3dbded10e0U, 0x16071cf114f51eeaU, 0xdcc1c52dfda83ae5U,
  0x4ed1031d3ff04ccU, 0xb9830b06c10534a0U, 0x708f431b31a2deeU, 0x27020632be0d0d1eU,
  0xbf5234063ceca0b4U, 0xacad05df1d17a5a3U, 0x3f1b5856c5c95210U, 0x9bf062bd3ec00cbbU,
  0xfcc018a49b2a099eU, 0xaac606a4d8274526U, 0xf7dc232ef5fd1843U, 0xa0fcef07f142dddfU,
  0x9e99a2b5c2c1ae13U, 0x30b09632d0dc2b30U, 0xc50a37f265fd09eaU, 0xa7c34adcca0f3c5aU,
  0x31fd942da35b5759U, 0xe0f7f4b3f91aac9bU, 0xf0aef65fb6efcc0bU, 0xa411daaae532e803U,
  0xc699f3a09228b3a6U, 0x34f299caa029bb3aU, 0xc343acf15647d722U, 0x65d20004ece306e2U,
  0xdbf855ee059ac7e6U, 0x4707e15106f3b4cdU, 0x4cf30be5161ea18cU, 0xd5ec43fc1cdba7a0U,
  0xf83a1633ca27349bU, 0x17b7b8df38374491U, 0x213d8516cc3395d0U, 0xc922da8da3bfad95U,
  0x1ad4f919c43643f4U, 0x87942dded68d12feU, 0xd24926472a07fb46U, 0x22f0f1510519bc1bU,
  0x26a29bc1285997d4U, 0x9ac480fcb390fd8U, 0xb79b1a4dea3b1bf8U, 0xd2c89a9987aa2931U,
  0xc0284fe6c53fde66U, 0xd7e09e5242cf43a7U, 0xeab30422dabf3cfaU, 0xf895ba4b9c125006U,
  0x2e32800beedcdbaU, 0xb10d2fc7cc06e734U, 0x31d036561f45dfc6U, 0xd49d503c560032fdU,
  0x3ed0ce51b2dbae08U, 0x20d1181217ace9ddU, 0xffcfd1a609494518U, 0xd050436e213d2deU,
  0xb6c5b91b5402d358U, 0x9019e60f01deab94U, 0xe4139542000bc392U, 0x43ff4366406491f7U,
